<pad>	0
<unk>	0
<s>	0
</s>	0
<sep>	0
<cls>	0
<mask>	0
▁이	-0
▁있	-1
에서	-2
으로	-3
▁그	-4
▁사	-5
▁아	-6
▁1	-7
▁하	-8
▁수	-9
▁2	-10
▁대	-11
▁가	-12
▁시	-13
▁한	-14
▁보	-15
▁다	-16
▁것	-17
▁전	-18
▁기	-19
▁자	-20
▁나	-21
하는	-22
지만	-23
▁지	-24
▁있다	-25
▁정	-26
▁모	-27
▁마	-28
▁일	-29
▁때	-30
이다	-31
▁상	-32
..	-33
었다	-34
▁스	-35
▁유	-36
▁공	-37
▁경	-38
▁없	-39
▁주	-40
▁제	-41
▁중	-42
▁인	-43
▁않	-44
▁부	-45
했다	-46
에게	-47
▁20	-48
▁오	-49
▁등	-50
▁어	-51
▁무	-52
하고	-53
▁3	-54
한다	-55
▁되	-56
▁소	-57
▁비	-58
▁위	-59
▁해	-60
▁여	-61
이라	-62
▁만	-63
▁바	-64
▁미	-65
▁있는	-66
▁-	-67
▁고	-68
▁조	-69
▁내	-70
▁말	-71
▁거	-72
▁성	-73
▁안	-74
▁'	-75
▁때문	-76
▁동	-77
▁도	-78
▁방	-79
▁후	-80
▁선	-81
▁영	-82
▁연	-83
까지	-84
▁생	-85
▁발	-86
▁한다	-87
▁신	-88
▁장	-89
들이	-90
면서	-91
▁구	-92
는데	-93
하게	-94
▁적	-95
된다	-96
▁의	-97
▁세	-98
▁게	-99
▁최	-100
에는	-101
▁많	-102
▁불	-103
레이	-104
▁카	-105
▁4	-106
00	-107
▁더	-108
▁201	-109
▁실	-110
▁당	-111
▁개	-112
▁진	-113
▁강	-114
▁(	-115
에서는	-116
▁타	-117
▁같	-118
▁결	-119
▁서	-120
▁원	-121
▁우	-122
하다	-123
▁파	-124
▁알	-125
▁문	-126
▁때문에	-127
▁5	-128
▁특	-129
▁경우	-130
...	-131
▁반	-132
▁들	-133
적으로	-134
으며	-135
▁아니	-136
▁포	-137
▁받	-138
▁노	-139
▁관	-140
리고	-141
▁"	-142
▁작	-143
▁못	-144
▁이후	-145
▁단	-146
적인	-147
▁역	-148
▁자신	-149
▁추	-150
▁리	-151
▁남	-152
▁차	-153
해서	-154
▁좋	-155
▁라	-156
부터	-157
▁본	-158
▁사용	-159
▁프	-160
▁물	-161
하기	-162
▁따	-163
다는	-164
▁출	-165
▁현	-166
대로	-167
▁배	-168
▁피	-169
▁사람	-170
▁버	-171
▁매	-172
▁데	-173
였다	-174
▁또	-175
라는	-176
라고	-177
▁S	-178
▁달	-179
▁:	-180
▁초	-181
하면	-182
▁에	-183
▁계	-184
하여	-185
▁공격	-186
다고	-187
▁정도	-188
▁감	-189
▁드	-190
▁건	-191
스트	-192
▁19	-193
▁두	-194
▁통	-195
▁재	-196
▁입	-197
▁코	-198
▁함	-199
▁크	-200
이나	-201
▁예	-202
in	-203
▁된다	-204
▁6	-205
▁다른	-206
들을	-207
▁국	-208
▁저	-209
▁참	-210
들은	-211
▁편	-212
▁패	-213
▁점	-214
▁분	-215
에도	-216
er	-217
▁요	-218
▁하지만	-219
▁할	-220
▁죽	-221
▁설	-222
▁등장	-223
지는	-224
으나	-225
▁쓰	-226
▁올	-227
▁김	-228
▁잘	-229
▁걸	-230
▁돌	-231
되었다	-232
▁레	-233
기를	-234
리는	-235
▁평	-236
기도	-237
▁교	-238
들의	-239
▁그리고	-240
▁7	-241
기에	-242
▁캐	-243
▁것이	-244
하지	-245
▁맞	-246
▁메	-247
▁가능	-248
▁플	-249
▁화	-250
▁명	-251
하며	-252
▁로	-253
▁처	-254
▁A	-255
▁확	-256
▁들어	-257
▁사실	-258
▁8	-259
▁외	-260
▁M	-261
▁하는	-262
▁10	-263
는다	-264
▁살	-265
▁직	-266
다가	-267
▁심	-268
▁같은	-269
▁게임	-270
▁아이	-271
▁과	-272
▁뒤	-273
▁호	-274
▁모습	-275
▁하나	-276
▁변	-277
▁애	-278
되어	-279
거나	-280
▁높	-281
▁치	-282
▁속	-283
보다	-284
▁9	-285
▁필	-286
▁회	-287
▁대한	-288
▁그러	-289
▁C	-290
on	-291
▁함께	-292
▁T	-293
리를	-294
았다	-295
▁시작	-296
▁학	-297
an	-298
▁나오	-299
▁트	-300
▁약	-301
▁언	-302
▁활	-303
▁했	-304
▁날	-305
▁없다	-306
▁종	-307
▁생각	-308
이라고	-309
어서	-310
▁박	-311
기가	-312
니다	-313
이라는	-314
▁문제	-315
▁체	-316
▁행	-317
▁운	-318
▁번	-319
▁간	-320
▁승	-321
▁힘	-322
▁목	-323
▁B	-324
이트	-325
▁했다	-326
▁존	-327
20	-328
▁위해	-329
▁것을	-330
▁만들	-331
th	-332
▁한국	-333
▁각	-334
▁끝	-335
▁토	-336
▁이상	-337
스터	-338
되는	-339
▁잡	-340
에서도	-341
▁손	-342
▁양	-343
처럼	-344
▁또한	-345
▁일본	-346
리가	-347
▁다시	-348
▁완	-349
▁집	-350
▁이름	-351
▁표	-352
▁D	-353
or	-354
릭터	-355
력을	-356
▁팀	-357
▁디	-358
▁되었다	-359
▁순	-360
▁없는	-361
▁있었	-362
▁가장	-363
▁너	-364
▁독	-365
▁캐릭터	-366
▁상황	-367
▁따라	-368
으면	-369
력이	-370
▁막	-371
▁P	-372
▁볼	-373
▁상대	-374
▁당시	-375
▁투	-376
▁총	-377
▁키	-378
▁모두	-379
▁열	-380
ar	-381
지고	-382
▁히	-383
▁군	-384
지를	-385
▁결국	-386
▁사이	-387
▁판	-388
▁베	-389
▁클	-390
▁근	-391
▁플레이	-392
▁난	-393
▁것이다	-394
기는	-395
▁보여	-396
라이	-397
▁다만	-398
▁폭	-399
▁형	-400
▁증	-401
▁새	-402
▁많이	-403
▁야	-404
▁빠	-405
...)	-406
▁L	-407
▁능	-408
이며	-409
▁200	-410
이고	-411
▁F	-412
▁별	-413
▁앞	-414
▁친	-415
▁것으로	-416
▁채	-417
▁보면	-418
▁용	-419
▁넘	-420
▁모든	-421
▁먹	-422
▁효	-423
▁상태	-424
▁시간	-425
▁복	-426
▁그런	-427
▁듯	-428
▁눈	-429
이지	-430
st	-431
▁프로	-432
이었	-433
(...)	-434
▁태	-435
▁추가	-436
이는	-437
▁것은	-438
▁루	-439
▁왕	-440
ou	-441
하면서	-442
▁네	-443
▁테	-444
▁있었다	-445
스를	-446
▁얼	-447
▁음	-448
▁매우	-449
▁자신의	-450
le	-451
▁존재	-452
▁충	-453
▁하고	-454
하였다	-455
스의	-456
▁I	-457
▁큰	-458
▁G	-459
▁12	-460
스가	-461
▁커	-462
▁나온	-463
리즈	-464
▁시즌	-465
▁항	-466
▁현재	-467
▁누	-468
▁브	-469
▁그래	-470
▁광	-471
▁블	-472
성이	-473
▁검	-474
▁악	-475
▁상당	-476
▁그러나	-477
▁및	-478
인다	-479
▁준	-480
▁싸	-481
),	-482
되었	-483
▁합	-484
▁물론	-485
학교	-486
자가	-487
▁줄	-488
at	-489
en	-490
므로	-491
▁전투	-492
▁찾	-493
▁병	-494
▁임	-495
▁삼	-496
▁느	-497
▁얻	-498
▁많은	-499
▁페	-500
가는	-501
들에게	-502
▁아닌	-503
▁천	-504
▁아니라	-505
▁자체	-506
▁그렇	-507
▁/	-508
▁된	-509
▁엄	-510
▁취	-511
▁E	-512
▁K	-513
▁11	-514
▁이유	-515
인이	-516
리아	-517
인데	-518
▁스킬	-519
▁이런	-520
▁실제	-521
▁N	-522
▁돌아	-523
▁첫	-524
▁떨	-525
가지	-526
▁모습을	-527
▁바로	-528
▁금	-529
▁R	-530
▁식	-531
▁처음	-532
▁팬	-533
▁극	-534
▁길	-535
▁갈	-536
들과	-537
이었다	-538
▁이용	-539
▁백	-540
▁시리즈	-541
인지	-542
졌다	-543
▁업	-544
▁역시	-545
▁선수	-546
진다	-547
▁H	-548
하자	-549
▁않는	-550
▁다음	-551
▁이미	-552
▁벌	-553
▁거의	-554
리스	-555
al	-556
▁카드	-557
▁밀	-558
▁절	-559
▁해당	-560
▁허	-561
지가	-562
▁필요	-563
▁0	-564
사를	-565
▁세계	-566
부분	-567
▁머	-568
▁기록	-569
린다	-570
▁여러	-571
▁온	-572
▁효과	-573
▁특히	-574
▁몰	-575
에선	-576
▁경기	-577
▁아무	-578
▁산	-579
▁와	-580
▁황	-581
▁되어	-582
시키	-583
▁않고	-584
▁잠	-585
어나	-586
이지만	-587
도가	-588
▁주인	-589
▁있으며	-590
라도	-591
▁곳	-592
사가	-593
▁진행	-594
▁붙	-595
▁민	-596
▁좋은	-597
상을	-598
▁떨어	-599
re	-600
지막	-601
▁기술	-602
하지만	-603
해야	-604
▁둘	-605
▁이야	-606
▁같이	-607
▁라이	-608
▁W	-609
▁탈	-610
기로	-611
▁좀	-612
▁슈	-613
했던	-614
▁수도	-615
▁있는데	-616
▁혼	-617
▁+	-618
▁밝	-619
▁엔	-620
▁일반	-621
주는	-622
▁은	-623
아서	-624
▁미국	-625
▁즉	-626
이가	-627
▁창	-628
▁싶	-629
▁지역	-630
▁#	-631
▁피해	-632
장을	-633
▁통해	-634
▁마지막	-635
▁참고	-636
▁기본	-637
▁부분	-638
이스	-639
▁달리	-640
▁터	-641
▁골	-642
▁15	-643
▁O	-644
▁않는다	-645
▁대부분	-646
▁계속	-647
▁마법	-648
▁보고	-649
▁귀	-650
로는	-651
▁레이	-652
전히	-653
▁그냥	-654
▁정도로	-655
▁쿠	-656
▁떠	-657
했고	-658
으니	-659
▁북	-660
▁관련	-661
▁올라	-662
▁b	-663
▁청	-664
▁보인다	-665
▁비슷	-666
▁되는	-667
▁있어	-668
▁사건	-669
▁뿐	-670
▁않은	-671
is	-672
▁있을	-673
▁환	-674
성을	-675
▁수준	-676
ing	-677
▁주인공	-678
▁몇	-679
▁방송	-680
▁어느	-681
▁몸	-682
▁담	-683
르는	-684
어가	-685
▁인해	-686
▁인간	-687
▁풀	-688
▁않았	-689
▁하다	-690
▁th	-691
19	-692
▁철	-693
▁권	-694
▁상당히	-695
시아	-696
▁범	-697
▁만들어	-698
▁작품	-699
▁가지고	-700
▁일부	-701
▁스타	-702
거리	-703
렸다	-704
▁있고	-705
▁낮	-706
▁대신	-707
▁지금	-708
▁내용	-709
▁곡	-710
▁케	-711
▁제외	-712
▁영화	-713
it	-714
드를	-715
▁이전	-716
▁너무	-717
▁맡	-718
▁것도	-719
▁탄	-720
정을	-721
▁이를	-722
▁그대로	-723
▁엘	-724
드는	-725
▁헤	-726
주의	-727
수가	-728
▁될	-729
▁성공	-730
들도	-731
▁좋아	-732
되고	-733
있는	-734
▁높은	-735
트를	-736
▁w	-737
▁제작	-738
▁능력	-739
▁언급	-740
리에	-741
▁대해	-742
습니다	-743
▁덕	-744
인의	-745
▁기준	-746
▁m	-747
▁뛰	-748
▁없이	-749
시간	-750
▁늘	-751
자를	-752
▁워	-753
▁여기	-754
려고	-755
시에	-756
▁위치	-757
▁30	-758
밖에	-759
지도	-760
장이	-761
▁월	-762
ic	-763
▁격	-764
▁100	-765
▁그녀	-766
마다	-767
▁직접	-768
."	-769
▁많다	-770
▁암	-771
▁접	-772
었고	-773
스는	-774
▁인물	-775
▁경우가	-776
년에	-777
르게	-778
▁유저	-779
ac	-780
▁활동	-781
▁중국	-782
▁199	-783
도록	-784
▁팔	-785
▁원래	-786
▁방어	-787
와의	-788
▁이어	-789
▁있지만	-790
▁V	-791
▁18	-792
▁질	-793
스로	-794
수를	-795
멤버	-796
왔다	-797
▁이는	-798
▁자신이	-799
▁대표	-800
자의	-801
▁나오는	-802
▁받아	-803
ad	-804
위를	-805
▁쓸	-806
▁법	-807
하는데	-808
10	-809
리의	-810
▁이동	-811
과는	-812
▁과거	-813
▁s	-814
▁괴	-815
▁타이	-816
▁나타	-817
▁글	-818
▁면	-819
▁의미	-820
▁16	-821
메이	-822
▁t	-823
하였	-824
우는	-825
▁논	-826
▁엄청	-827
▁감독	-828
▁마음	-829
도로	-830
치는	-831
로운	-832
▁애니	-833
준다	-834
▁넣	-835
전을	-836
정이	-837
▁멤버	-838
▁선택	-839
없이	-840
드가	-841
사의	-842
▁시절	-843
도를	-844
▁[	-845
▁축	-846
▁증가	-847
▁있던	-848
▁던	-849
▁장면	-850
▁자기	-851
▁등의	-852
▁홍	-853
▁울	-854
이자	-855
리어	-856
▁꽤	-857
▁최대	-858
드의	-859
▁스토	-860
▁서울	-861
▁쉽	-862
하던	-863
중에	-864
▁찾아	-865
▁실제로	-866
▁국가	-867
he	-868
▁망	-869
om	-870
▁크게	-871
▁나온다	-872
▁컨	-873
▁먼	-874
▁관계	-875
▁초반	-876
점을	-877
▁이에	-878
리지	-879
▁U	-880
▁f	-881
▁말을	-882
▁전체	-883
▁그의	-884
▁갖	-885
나는	-886
▁평가	-887
자는	-888
번째	-889
▁깨	-890
스타	-891
대를	-892
▁조금	-893
명이	-894
▁슬	-895
▁쪽	-896
▁몬	-897
▁묘	-898
▁영상	-899
▁알려	-900
있다	-901
▁티	-902
▁전부	-903
▁보여주	-904
▁러	-905
▁이때	-906
000	-907
이기	-908
▁사망	-909
▁제대로	-910
▁유닛	-911
▁니	-912
▁2020	-913
▁2018	-914
es	-915
치가	-916
▁육	-917
▁있다는	-918
▁혹	-919
▁<	-920
기의	-921
▁13	-922
▁2019	-923
▁아니다	-924
치를	-925
▁지원	-926
▁만든	-927
▁불가	-928
화를	-929
트가	-930
▁압	-931
▁지나	-932
▁돈	-933
▁데미	-934
▁이것	-935
▁향	-936
▁레벨	-937
{{	-938
인을	-939
▁퍼	-940
▁사라	-941
▁자주	-942
▁놀	-943
만큼	-944
ay	-945
▁유명	-946
▁아버	-947
!!	-948
이를	-949
....	-950
▁최고	-951
국의	-952
▁참고로	-953
▁하지	-954
el	-955
am	-956
▁동안	-957
▁포함	-958
▁갑	-959
하기도	-960
▁듣	-961
어로	-962
대의	-963
▁the	-964
▁d	-965
되지	-966
▁아이템	-967
▁방법	-968
▁홈	-969
▁급	-970
▁아직	-971
▁이렇	-972
▁칼	-973
▁이벤	-974
▁o	-975
▁14	-976
전에서	-977
px	-978
▁적이	-979
▁결과	-980
명을	-981
▁당연	-982
▁친구	-983
▁찍	-984
▁해도	-985
원이	-986
로서	-987
어난	-988
▁정말	-989
와는	-990
▁비해	-991
히려	-992
같은	-993
▁c	-994
-1	-995
▁출연	-996
머니	-997
▁가능하다	-998
▁전쟁	-999
▁사랑	-1000
일에	-1001
▁마찬	-1002
▁침	-1003
▁기존	-1004
▁책	-1005
▁오히려	-1006
이어	-1007
▁마찬가지	-1008
▁영향	-1009
▁희	-1010
전에	-1011
▁놓	-1012
했을	-1013
지어	-1014
▁2017	-1015
▁서로	-1016
했지만	-1017
▁발생	-1018
▁끌	-1019
▁설정	-1020
▁때문이다	-1021
▁무기	-1022
▁그런데	-1023
▁있어서	-1024
▁빨	-1025
▁주로	-1026
▁강력	-1027
▁인터	-1028
이드	-1029
ol	-1030
는지	-1031
으로는	-1032
▁위한	-1033
▁의해	-1034
▁비교	-1035
▁딜	-1036
▁탑	-1037
▁않았다	-1038
▁아예	-1039
식을	-1040
▁멀	-1041
ig	-1042
▁협	-1043
▁좋다	-1044
▁본인	-1045
▁학생	-1046
▁살아	-1047
as	-1048
▁왜	-1049
▁규	-1050
▁없어	-1051
격을	-1052
▁개발	-1053
▁빼	-1054
▁그것	-1055
▁빌	-1056
▁뜻	-1057
▁사람이	-1058
▁몬스터	-1059
▁2016	-1060
▁p	-1061
▁소환	-1062
▁사실상	-1063
였던	-1064
ow	-1065
▁궁	-1066
▁이번	-1067
▁뉴	-1068
▁역할	-1069
▁17	-1070
▁가진	-1071
과의	-1072
▁알고	-1073
화에서	-1074
▁후반	-1075
운드	-1076
▁파괴	-1077
▁소속	-1078
▁최종	-1079
하려	-1080
나마	-1081
▁공식	-1082
▁측	-1083
▁봐	-1084
점이	-1085
▁중요	-1086
▁하며	-1087
▁운영	-1088
▁학교	-1089
id	-1090
상이	-1091
▁그래서	-1092
ed	-1093
▁게다가	-1094
▁출신	-1095
분에	-1096
동안	-1097
하거나	-1098
▁공개	-1099
▁이루	-1100
▁어떤	-1101
▁변경	-1102
▁노래	-1103
▁봉	-1104
▁J	-1105
▁이러	-1106
▁심지어	-1107
오는	-1108
ion	-1109
▁리그	-1110
▁하면	-1111
▁정신	-1112
나가	-1113
▁플레이어	-1114
자로	-1115
▁유지	-1116
▁착	-1117
했다고	-1118
었던	-1119
▁발매	-1120
.0	-1121
▁되고	-1122
다면	-1123
▁25	-1124
▁써	-1125
▁일단	-1126
▁프리	-1127
랜드	-1128
▁이렇게	-1129
▁성능	-1130
▁가까	-1131
음을	-1132
르면	-1133
▁그렇게	-1134
▁어려	-1135
▁유일	-1136
▁잔	-1137
▁연구	-1138
▁먼저	-1139
▁보통	-1140
▁그래도	-1141
▁부족	-1142
에서의	-1143
이터	-1144
▁들어가	-1145
▁힘들	-1146
il	-1147
▁우승	-1148
▁여성	-1149
et	-1150
▁있다고	-1151
▁문서	-1152
물을	-1153
리그	-1154
▁비슷한	-1155
▁바람	-1156
자인	-1157
▁뽑	-1158
▁앨	-1159
▁숨	-1160
▁농	-1161
간다	-1162
▁결정	-1163
▁정보	-1164
▁→	-1165
트로	-1166
ht	-1167
▁까	-1168
▁드러	-1169
▁완전히	-1170
▁~	-1171
▁바뀌	-1172
▁행동	-1173
us	-1174
수의	-1175
스와	-1176
▁y	-1177
르고	-1178
▁기사	-1179
임을	-1180
▁어떻	-1181
이기도	-1182
.1	-1183
년대	-1184
▁2015	-1185
서는	-1186
▁모양	-1187
▁등을	-1188
▁활약	-1189
▁흔	-1190
▁굉	-1191
▁드래	-1192
▁강화	-1193
시켜	-1194
▁승리	-1195
▁아래	-1196
▁동시에	-1197
▁형태	-1198
▁50	-1199
리카	-1200
▁슈퍼	-1201
▁X	-1202
보면	-1203
▁내려	-1204
원을	-1205
더라도	-1206
▁만큼	-1207
▁마이	-1208
지의	-1209
▁일이	-1210
라마	-1211
▁전혀	-1212
사는	-1213
라의	-1214
▁굉장	-1215
▁도시	-1216
대가	-1217
▁성격	-1218
▁잃	-1219
▁설명	-1220
▁한번	-1221
▁확인	-1222
▁어떻게	-1223
지로	-1224
내는	-1225
▁버전	-1226
화가	-1227
▁폐	-1228
리오	-1229
스템	-1230
▁원작	-1231
.)	-1232
▁만나	-1233
▁않아	-1234
ve	-1235
▁얼굴	-1236
▁패배	-1237
and	-1238
드로	-1239
른다	-1240
▁불가능	-1241
▁송	-1242
▁되었	-1243
▁같다	-1244
▁회복	-1245
▁흑	-1246
▁전에	-1247
▁그나마	-1248
▁움	-1249
어버	-1250
간에	-1251
▁때는	-1252
▁주변	-1253
▁얼마	-1254
▁대한민	-1255
니까	-1256
명의	-1257
▁보스	-1258
적이	-1259
▁적용	-1260
▁이제	-1261
프트	-1262
라가	-1263
상으로	-1264
▁자세	-1265
▁작중	-1266
▁198	-1267
▁이야기	-1268
보다는	-1269
▁스테	-1270
▁실패	-1271
▁난이	-1272
▁여자	-1273
해도	-1274
▁혹은	-1275
▁솔	-1276
▁특수	-1277
▁새로운	-1278
구를	-1279
▁발동	-1280
조차	-1281
▁편이다	-1282
▁영웅	-1283
등학교	-1284
▁기억	-1285
▁방식	-1286
▁of	-1287
▁반응	-1288
어도	-1289
났다	-1290
했는데	-1291
▁스트	-1292
▁힘을	-1293
▁동일	-1294
▁주장	-1295
▁자신을	-1296
▁최초	-1297
▁이러한	-1298
한테	-1299
▁성우	-1300
메이션	-1301
▁가져	-1302
▁사회	-1303
▁덕분에	-1304
▁발견	-1305
▁위해서	-1306
▁프랑	-1307
▁우리	-1308
).	-1309
▁휴	-1310
▁없었다	-1311
▁문제가	-1312
▁맵	-1313
▁쓰는	-1314
▁딸	-1315
한다는	-1316
움을	-1317
▁섬	-1318
▁사진	-1319
▁이벤트	-1320
▁경우도	-1321
▁모델	-1322
했으며	-1323
▁좌	-1324
▁출시	-1325
▁그리	-1326
▁받고	-1327
▁했지만	-1328
▁독일	-1329
▁확률	-1330
▁쉬	-1331
▁장비	-1332
▁배우	-1333
아가	-1334
nd	-1335
ik	-1336
▁입장	-1337
▁콘	-1338
시킨	-1339
어를	-1340
▁시스템	-1341
201	-1342
갔다	-1343
라면	-1344
▁샤	-1345
▁바이	-1346
▁하는데	-1347
▁쇼	-1348
▁자체가	-1349
▁녹	-1350
▁굉장히	-1351
▁센	-1352
▁넘어	-1353
▁차지	-1354
▁차량	-1355
군의	-1356
▁움직	-1357
▁자유	-1358
▁2014	-1359
▁순간	-1360
▁음악	-1361
ch	-1362
▁있기	-1363
이었던	-1364
▁응	-1365
▁뭐	-1366
▁시점	-1367
디오	-1368
▁밝혀	-1369
▁빛	-1370
그램	-1371
!"	-1372
스크	-1373
▁a	-1374
대한	-1375
▁에피	-1376
.2	-1377
▁특성	-1378
경기	-1379
대에	-1380
.5	-1381
▁노선	-1382
개의	-1383
▁또는	-1384
▁정확	-1385
BS	-1386
겠지만	-1387
체를	-1388
했다는	-1389
▁빈	-1390
▁윤	-1391
▁정부	-1392
력은	-1393
정도	-1394
▁딱	-1395
▁마을	-1396
▁국내	-1397
▁나가	-1398
▁오브	-1399
▁하루	-1400
▁긴	-1401
▁있게	-1402
▁해서	-1403
▁쓴	-1404
▁견	-1405
지에	-1406
으므로	-1407
▁구성	-1408
▁상대로	-1409
▁표현	-1410
▁l	-1411
ro	-1412
▁경찰	-1413
치고	-1414
▁공격을	-1415
▁정치	-1416
▁n	-1417
▁어렵	-1418
▁없고	-1419
▁않다	-1420
▁Y	-1421
▁st	-1422
▁확실	-1423
▁시간이	-1424
▁받은	-1425
지지	-1426
▁드래곤	-1427
▁휘	-1428
▁답	-1429
▁진짜	-1430
니아	-1431
▁색	-1432
▁마찬가지로	-1433
▁애니메이션	-1434
▁웃	-1435
▁사용하는	-1436
원의	-1437
▁참조	-1438
▁콜	-1439
▁담당	-1440
▁등장하는	-1441
▁에피소	-1442
▁챔	-1443
▁등이	-1444
▁못하고	-1445
▁가능성이	-1446
▁지속	-1447
이의	-1448
장의	-1449
▁그림	-1450
▁you	-1451
▁대체	-1452
▁가능한	-1453
제가	-1454
▁남자	-1455
▁믿	-1456
▁인정	-1457
(...).	-1458
▁나와	-1459
▁훈	-1460
▁계획	-1461
통령	-1462
▁21	-1463
문을	-1464
▁기능	-1465
▁강력한	-1466
했으나	-1467
스러	-1468
50	-1469
▁여담	-1470
가가	-1471
▁못한	-1472
▁그는	-1473
▁아마	-1474
▁묻	-1475
▁어디	-1476
▁다르	-1477
타를	-1478
▁더욱	-1479
▁졸	-1480
▁월드	-1481
이라면	-1482
▁주의	-1483
버스	-1484
레벨	-1485
-2	-1486
▁획	-1487
▁수비	-1488
까지는	-1489
▁당연히	-1490
▁엄청난	-1491
▁다이	-1492
으면서	-1493
▁in	-1494
▁풍	-1495
▁퇴	-1496
):	-1497
전이	-1498
놓고	-1499
수는	-1500
▁훨	-1501
▁사람들이	-1502
▁겨	-1503
트의	-1504
▁단순	-1505
▁가지	-1506
▁따라서	-1507
▁아주	-1508
수로	-1509
▁알아	-1510
▁스토리	-1511
▁자동	-1512
▁24	-1513
▁생산	-1514
회의	-1515
▁판매	-1516
▁말이	-1517
▁여전히	-1518
도는	-1519
▁옆	-1520
▁익	-1521
▁참여	-1522
감을	-1523
▁활용	-1524
▁무시	-1525
▁비판	-1526
▁특징	-1527
히는	-1528
우스	-1529
어진	-1530
▁개인	-1531
시즌	-1532
▁혼자	-1533
▁쓰러	-1534
▁이름을	-1535
▁쉽게	-1536
▁위험	-1537
▁준비	-1538
▁감소	-1539
▁훨씬	-1540
▁나왔	-1541
▁다양	-1542
▁분위	-1543
려서	-1544
ot	-1545
들에	-1546
▁나머	-1547
구하고	-1548
▁패턴	-1549
▁땅	-1550
▁액	-1551
▁따르면	-1552
im	-1553
▁앨범	-1554
▁하이	-1555
▁시청	-1556
도의	-1557
▁사용할	-1558
▁여기서	-1559
▁어머니	-1560
▁하자	-1561
▁꿈	-1562
▁짓	-1563
▁똑	-1564
▁한정	-1565
▁가는	-1566
▁현실	-1567
적을	-1568
학생	-1569
▁가면	-1570
▁얘	-1571
치로	-1572
▁수가	-1573
▁어린	-1574
▁보내	-1575
겠다	-1576
량이	-1577
▁대해서	-1578
▁잡아	-1579
게임	-1580
▁진출	-1581
사로	-1582
문에	-1583
▁맨	-1584
▁남아	-1585
▁맥	-1586
▁대통령	-1587
▁괜	-1588
제를	-1589
없는	-1590
▁h	-1591
▁꾸	-1592
▁g	-1593
▁데뷔	-1594
겠다고	-1595
▁폭발	-1596
▁경험	-1597
▁약간	-1598
em	-1599
▁메이	-1600
상의	-1601
선을	-1602
▁우주	-1603
▁싱	-1604
리기	-1605
▁선발	-1606
▁핵	-1607
▁있었던	-1608
체가	-1609
만한	-1610
개를	-1611
▁드라마	-1612
▁중심	-1613
되면서	-1614
▁싫	-1615
계를	-1616
▁조합	-1617
▁술	-1618
▁동료	-1619
▁밤	-1620
▁등장한다	-1621
▁40	-1622
해주	-1623
됐다	-1624
프를	-1625
▁체력	-1626
▁강한	-1627
▁영국	-1628
퀘스트	-1629
▁잘못	-1630
▁헬	-1631
으로서	-1632
난다	-1633
▁도망	-1634
▁수록	-1635
▁스페	-1636
리로	-1637
▁요구	-1638
▁취급	-1639
권을	-1640
부를	-1641
▁2013	-1642
▁각각	-1643
▁건물	-1644
▁획득	-1645
▁푸	-1646
ff	-1647
▁불구하고	-1648
▁1,	-1649
ver	-1650
▁조건	-1651
리와	-1652
▁주는	-1653
▁숙	-1654
▁의견	-1655
▁석	-1656
한다고	-1657
시키는	-1658
만에	-1659
레이드	-1660
▁라인	-1661
▁22	-1662
식이	-1663
▁고려	-1664
▁문제는	-1665
▁컴	-1666
피언	-1667
▁해결	-1668
자기	-1669
군이	-1670
▁보는	-1671
듯이	-1672
▁결혼	-1673
라인	-1674
.#	-1675
▁않을	-1676
보니	-1677
장에	-1678
인물	-1679
▁죄	-1680
▁역사	-1681
▁사고	-1682
▁발표	-1683
▁과정	-1684
▁이해	-1685
▁논란	-1686
▁후보	-1687
▁대회	-1688
▁설치	-1689
un	-1690
심을	-1691
▁받는	-1692
장은	-1693
30	-1694
▁가족	-1695
제로	-1696
▁《	-1697
▁낙	-1698
이면	-1699
▁읽	-1700
▁끼	-1701
져서	-1702
▁탓	-1703
▁끊	-1704
되며	-1705
라를	-1706
▁들고	-1707
▁일으	-1708
▁후에	-1709
▁받았	-1710
▁가격	-1711
▁흡	-1712
대는	-1713
데이트	-1714
▁짧	-1715
▁일행	-1716
(1	-1717
▁대미	-1718
▁이유는	-1719
나게	-1720
ent	-1721
학년	-1722
▁클리어	-1723
▁벗	-1724
티브	-1725
▁욕	-1726
▁링	-1727
▁즐	-1728
▁충분	-1729
위로	-1730
▁내가	-1731
ack	-1732
▁굴	-1733
▁느낌	-1734
이로	-1735
▁아르	-1736
▁번째	-1737
▁헌	-1738
▁듀	-1739
▁초기	-1740
▁그를	-1741
부의	-1742
기고	-1743
▁조선	-1744
부에	-1745
▁처리	-1746
ir	-1747
▁피해를	-1748
키는	-1749
▁굳	-1750
▁항목	-1751
▁폴	-1752
▁것에	-1753
▁참가	-1754
만이	-1755
위가	-1756
▁탐	-1757
yle	-1758
하나	-1759
▁보이는	-1760
장으로	-1761
▁최근	-1762
▁챔피언	-1763
▁블랙	-1764
▁나왔다	-1765
▁업데이트	-1766
라서	-1767
초에	-1768
업을	-1769
▁뮤	-1770
하다는	-1771
▁상승	-1772
▁되면	-1773
수록	-1774
▁현대	-1775
▁버스	-1776
▁갤	-1777
▁곧	-1778
구가	-1779
▁추정	-1780
▁맛	-1781
장에서	-1782
▁엑	-1783
신이	-1784
▁엔딩	-1785
▁대학	-1786
라며	-1787
대학교	-1788
▁쳐	-1789
타로	-1790
▁퀘스트	-1791
▁츠	-1792
성은	-1793
▁방향	-1794
▁다니	-1795
▁적을	-1796
▁오래	-1797
▁습	-1798
되었고	-1799
▁크로	-1800
마저	-1801
od	-1802
▁2012	-1803
리티	-1804
▁파워	-1805
▁기준으로	-1806
▁미션	-1807
냐고	-1808
?)	-1809
▁낮은	-1810
▁중앙	-1811
▁덱	-1812
▁스스로	-1813
▁제국	-1814
가를	-1815
▁타고	-1816
크로	-1817
▁역할을	-1818
트는	-1819
▁제한	-1820
▁전용	-1821
▁2010	-1822
▁경우는	-1823
▁높다	-1824
라운드	-1825
▁공격력	-1826
▁꼬	-1827
▁이유로	-1828
▁절대	-1829
▁모드	-1830
▁목소	-1831
▁보호	-1832
냈다	-1833
ine	-1834
▁23	-1835
▁여담으로	-1836
▁마스터	-1837
▁부활	-1838
▁그가	-1839
▁덤	-1840
▁발사	-1841
▁오른	-1842
ag	-1843
▁러시아	-1844
나라	-1845
같이	-1846
▁제공	-1847
{{{	-1848
크를	-1849
▁‘	-1850
정한	-1851
▁흥	-1852
신을	-1853
▁예정	-1854
▁구조	-1855
카이	-1856
▁되지	-1857
▁나는	-1858
▁하기	-1859
▁가끔	-1860
▁한편	-1861
말로	-1862
▁방영	-1863
▁대한민국	-1864
이란	-1865
만을	-1866
▁류	-1867
하다가	-1868
▁영향을	-1869
▁소모	-1870
리며	-1871
▁교육	-1872
▁to	-1873
▁벽	-1874
▁아버지	-1875
▁벨	-1876
▁웨	-1877
▁메인	-1878
리면	-1879
ur	-1880
▁홀	-1881
ak	-1882
▁하였다	-1883
유의	-1884
겼다	-1885
일을	-1886
다니	-1887
점으로	-1888
사와	-1889
▁작은	-1890
▁반면	-1891
▁종료	-1892
▁셈	-1893
200	-1894
?"	-1895
21	-1896
▁계약	-1897
▁지구	-1898
▁만약	-1899
▁프로그램	-1900
▁좋지	-1901
▁생존	-1902
합니다	-1903
.(	-1904
▁나머지	-1905
가의	-1906
였고	-1907
인은	-1908
▁중에	-1909
▁얻을	-1910
▁나이	-1911
▁다르게	-1912
▁하면서	-1913
▁특별	-1914
이즈	-1915
로를	-1916
자들이	-1917
ight	-1918
당한	-1919
력으로	-1920
▁전작	-1921
입니다	-1922
에게는	-1923
▁유튜	-1924
▁지하	-1925
▁일을	-1926
▁히로	-1927
▁꺼	-1928
성의	-1929
려는	-1930
▁이루어	-1931
▁&	-1932
하다고	-1933
지기	-1934
▁아니고	-1935
▁밖에	-1936
지게	-1937
▁대부분의	-1938
▁해야	-1939
어들	-1940
▁현재는	-1941
으로도	-1942
▁배경	-1943
▁생활	-1944
비가	-1945
▁찬	-1946
▁대전	-1947
▁괜찮	-1948
▁더불	-1949
▁정작	-1950
시를	-1951
▁뒷	-1952
▁인터뷰	-1953
일이	-1954
▁구간	-1955
음에도	-1956
▁생긴	-1957
▁싸우	-1958
▁분노	-1959
▁유리	-1960
위에	-1961
▁크리스	-1962
▁상황에서	-1963
▁자리	-1964
▁밴	-1965
▁바람에	-1966
혔다	-1967
▁TV	-1968
ath	-1969
▁항상	-1970
▁능력을	-1971
▁받았다	-1972
이라도	-1973
▁근접	-1974
함을	-1975
▁모습이	-1976
▁St	-1977
▁비롯	-1978
소를	-1979
▁제외한	-1980
들로	-1981
▁말한다	-1982
어야	-1983
▁검은	-1984
▁중요한	-1985
▁달성	-1986
▁연속	-1987
▁자랑	-1988
▁본인이	-1989
▁다양한	-1990
▁시도	-1991
위원	-1992
▁부산	-1993
▁끝나	-1994
여서	-1995
▁v	-1996
▁번역	-1997
▁연출	-1998
주고	-1999
▁정도의	-2000
기와	-2001
낸다	-2002
▁무엇	-2003
▁에피소드	-2004
▁197	-2005
었지만	-2006
▁배틀	-2007
나이	-2008
조건	-2009
▁펼	-2010
▁사실을	-2011
▁k	-2012
ut	-2013
로가	-2014
▁유니	-2015
▁나름	-2016
명은	-2017
▁신경	-2018
스럽	-2019
회를	-2020
▁28	-2021
▁거기	-2022
외로	-2023
▁흐	-2024
시가	-2025
▁보이	-2026
의를	-2027
▁국민	-2028
스에	-2029
▁더불어	-2030
iki	-2031
▁연결	-2032
단의	-2033
▁흘	-2034
전의	-2035
▁쿨	-2036
{{{#	-2037
ER	-2038
지션	-2039
▁26	-2040
세를	-2041
▁포켓	-2042
▁넓	-2043
▁쌓	-2044
버린	-2045
▁빠른	-2046
▁The	-2047
▁최소	-2048
었다고	-2049
▁독립	-2050
▁묘사	-2051
ec	-2052
▁아군	-2053
▁갑자기	-2054
▁일어나	-2055
▁자연	-2056
리게	-2057
▁미래	-2058
▁누구	-2059
동을	-2060
▁아이돌	-2061
▁전문	-2062
BC	-2063
더니	-2064
▁만화	-2065
▁세이	-2066
▁압도	-2067
▁못하는	-2068
▁두고	-2069
▁따로	-2070
▁달려	-2071
▁장착	-2072
▁벌어	-2073
▁삭	-2074
인트	-2075
▁기간	-2076
▁칭	-2077
▁브라	-2078
월에	-2079
▁일정	-2080
▁염	-2081
비를	-2082
▁게임을	-2083
자와	-2084
▁깔	-2085
▁출전	-2086
행을	-2087
▁스피	-2088
▁사람은	-2089
▁예상	-2090
▁나서	-2091
▁나무	-2092
고는	-2093
▁않게	-2094
었는데	-2095
▁축구	-2096
▁수정	-2097
미가	-2098
▁것과	-2099
▁전반	-2100
▁불러	-2101
시로	-2102
="	-2103
▁별로	-2104
▁케이	-2105
▁있다면	-2106
▁상황이	-2107
▁27	-2108
wiki	-2109
▁랜	-2110
상에	-2111
▁물리	-2112
▁적은	-2113
▁위에	-2114
▁각종	-2115
▁없을	-2116
▁빅	-2117
▁주요	-2118
▁이상의	-2119
▁득	-2120
▁보니	-2121
▁애초에	-2122
▁있으니	-2123
▁식으로	-2124
마의	-2125
수한	-2126
▁에너	-2127
▁조직	-2128
▁징	-2129
▁성장	-2130
▁탱	-2131
움이	-2132
관이	-2133
▁제일	-2134
세대	-2135
사에	-2136
▁만드는	-2137
▁모르	-2138
▁못했다	-2139
▁유명한	-2140
▁나올	-2141
부터는	-2142
▁부르	-2143
▁확정	-2144
▁돼	-2145
호가	-2146
레스	-2147
신의	-2148
물이	-2149
▁유럽	-2150
시의	-2151
▁소설	-2152
대학	-2153
▁반대	-2154
▁칸	-2155
종의	-2156
um	-2157
되기	-2158
스러운	-2159
▁2011	-2160
부가	-2161
',	-2162
▁틀	-2163
진이	-2164
▁style	-2165
내고	-2166
마가	-2167
고를	-2168
▁계열	-2169
▁지켜	-2170
해진	-2171
크가	-2172
프로	-2173
나의	-2174
▁선거	-2175
지면	-2176
▁「	-2177
▁이쪽	-2178
▁옵	-2179
▁지난	-2180
선이	-2181
진을	-2182
단을	-2183
▁이걸	-2184
▁이게	-2185
▁냉	-2186
버렸다	-2187
▁기다	-2188
{{{#!	-2189
세계	-2190
▁기대	-2191
▁북한	-2192
▁시전	-2193
원은	-2194
▁프랑스	-2195
▁전설	-2196
율이	-2197
▁잠시	-2198
주를	-2199
▁Z	-2200
▁무려	-2201
▁지휘	-2202
▁왼	-2203
냐는	-2204
▁포켓몬	-2205
원으로	-2206
▁관리	-2207
▁콤	-2208
마자	-2209
▁억	-2210
시켰	-2211
▁비밀	-2212
▁빠르게	-2213
▁목표	-2214
▁자세한	-2215
▁뒤에	-2216
이션	-2217
운데	-2218
▁언제	-2219
▁훈련	-2220
▁이용해	-2221
▁하여	-2222
▁없다는	-2223
▁롤	-2224
▁졸업	-2225
▁이름이	-2226
▁차이가	-2227
▁등으로	-2228
▁안에	-2229
▁없다고	-2230
▁엘리	-2231
▁비행	-2232
방송	-2233
▁정식	-2234
야말로	-2235
▁듣고	-2236
▁2000	-2237
▁운행	-2238
▁스테이지	-2239
▁소개	-2240
▁아니면	-2241
▁존재한다	-2242
▁전차	-2243
호를	-2244
▁본래	-2245
▁교체	-2246
▁탈출	-2247
▁이끌	-2248
▁효과를	-2249
▁이후로	-2250
▁특정	-2251
▁무슨	-2252
▁연기	-2253
▁미사	-2254
공격	-2255
▁특이	-2256
▁나타나	-2257
▁납	-2258
▁경우에는	-2259
▁소녀	-2260
▁최강	-2261
▁스파	-2262
60	-2263
▁머리	-2264
▁있으나	-2265
▁뜨	-2266
았던	-2267
▁말에	-2268
▁“	-2269
버린다	-2270
▁대사	-2271
▁이외	-2272
▁사례	-2273
▁안정	-2274
▁씨	-2275
(?)	-2276
!)	-2277
▁옷	-2278
▁하늘	-2279
▁되었고	-2280
▁사냥	-2281
▁맹	-2282
,000	-2283
▁파티	-2284
▁있으면	-2285
▁물건	-2286
보는	-2287
▁이야기를	-2288
▁빠져	-2289
부로	-2290
▁수는	-2291
pl	-2292
▁오늘	-2293
▁영어	-2294
)]	-2295
디어	-2296
▁했으나	-2297
▁집중	-2298
▁가까운	-2299
▁하게	-2300
▁뭔	-2301
▁짜	-2302
▁1.	-2303
▁등장한	-2304
스티	-2305
▁기본적으로	-2306
▁근처	-2307
▁필요한	-2308
▁이탈	-2309
▁깊	-2310
▁라고	-2311
프가	-2312
무를	-2313
▁부모	-2314
단이	-2315
▁	-2316
이	-2317
다	-2318
.	-2319
는	-2320
에	-2321
로	-2322
가	-2323
의	-2324
하	-2325
을	-2326
지	-2327
고	-2328
,	-2329
서	-2330
한	-2331
기	-2332
도	-2333
리	-2334
를	-2335
은	-2336
어	-2337
사	-2338
스	-2339
나	-2340
인	-2341
아	-2342
시	-2343
으	-2344
라	-2345
1	-2346
대	-2347
자	-2348
있	-2349
게	-2350
수	-2351
그	-2352
0	-2353
만	-2354
해	-2355
2	-2356
들	-2357
전	-2358
면	-2359
정	-2360
보	-2361
상	-2362
일	-2363
부	-2364
장	-2365
마	-2366
과	-2367
주	-2368
되	-2369
드	-2370
제	-2371
)	-2372
(	-2373
e	-2374
트	-2375
었	-2376
적	-2377
우	-2378
성	-2379
니	-2380
오	-2381
와	-2382
것	-2383
했	-2384
모	-2385
신	-2386
데	-2387
여	-2388
공	-2389
미	-2390
유	-2391
무	-2392
비	-2393
구	-2394
중	-2395
a	-2396
동	-2397
소	-2398
문	-2399
위	-2400
3	-2401
며	-2402
경	-2403
진	-2404
거	-2405
치	-2406
때	-2407
원	-2408
타	-2409
o	-2410
터	-2411
국	-2412
i	-2413
선	-2414
화	-2415
년	-2416
'	-2417
용	-2418
레	-2419
히	-2420
t	-2421
조	-2422
n	-2423
후	-2424
-	-2425
러	-2426
당	-2427
r	-2428
5	-2429
없	-2430
내	-2431
된	-2432
간	-2433
9	-2434
할	-2435
카	-2436
실	-2437
버	-2438
세	-2439
등	-2440
4	-2441
려	-2442
작	-2443
:	-2444
생	-2445
명	-2446
야	-2447
연	-2448
력	-2449
안	-2450
바	-2451
르	-2452
방	-2453
단	-2454
계	-2455
개	-2456
영	-2457
던	-2458
않	-2459
격	-2460
크	-2461
발	-2462
반	-2463
s	-2464
차	-2465
프	-2466
재	-2467
체	-2468
물	-2469
역	-2470
"	-2471
분	-2472
말	-2473
까	-2474
6	-2475
l	-2476
더	-2477
8	-2478
관	-2479
파	-2480
점	-2481
요	-2482
운	-2483
본	-2484
키	-2485
회	-2486
교	-2487
노	-2488
7	-2489
월	-2490
음	-2491
래	-2492
학	-2493
포	-2494
저	-2495
행	-2496
건	-2497
속	-2498
S	-2499
임	-2500
능	-2501
피	-2502
식	-2503
호	-2504
두	-2505
코	-2506
루	-2507
강	-2508
토	-2509
h	-2510
였	-2511
결	-2512
통	-2513
각	-2514
군	-2515
A	-2516
d	-2517
입	-2518
불	-2519
m	-2520
번	-2521
출	-2522
처	-2523
현	-2524
매	-2525
배	-2526
초	-2527
준	-2528
같	-2529
C	-2530
함	-2531
받	-2532
디	-2533
종	-2534
/	-2535
른	-2536
u	-2537
즈	-2538
최	-2539
남	-2540
직	-2541
심	-2542
린	-2543
감	-2544
난	-2545
많	-2546
승	-2547
편	-2548
태	-2549
설	-2550
티	-2551
메	-2552
형	-2553
!	-2554
산	-2555
았	-2556
c	-2557
판	-2558
추	-2559
브	-2560
달	-2561
알	-2562
외	-2563
T	-2564
급	-2565
금	-2566
특	-2567
양	-2568
예	-2569
투	-2570
람	-2571
온	-2572
습	-2573
약	-2574
P	-2575
패	-2576
M	-2577
살	-2578
못	-2579
민	-2580
테	-2581
언	-2582
표	-2583
업	-2584
런	-2585
p	-2586
든	-2587
법	-2588
너	-2589
g	-2590
B	-2591
y	-2592
E	-2593
록	-2594
플	-2595
D	-2596
네	-2597
걸	-2598
I	-2599
좋	-2600
돌	-2601
복	-2602
합	-2603
워	-2604
올	-2605
목	-2606
따	-2607
병	-2608
황	-2609
독	-2610
날	-2611
막	-2612
권	-2613
평	-2614
집	-2615
또	-2616
박	-2617
변	-2618
술	-2619
론	-2620
절	-2621
란	-2622
천	-2623
머	-2624
L	-2625
R	-2626
참	-2627
존	-2628
청	-2629
근	-2630
애	-2631
O	-2632
G	-2633
름	-2634
질	-2635
확	-2636
활	-2637
캐	-2638
죽	-2639
울	-2640
쓰	-2641
왕	-2642
k	-2643
망	-2644
김	-2645
환	-2646
필	-2647
악	-2648
순	-2649
열	-2650
N	-2651
져	-2652
별	-2653
베	-2654
F	-2655
맞	-2656
션	-2657
페	-2658
쿠	-2659
?	-2660
향	-2661
커	-2662
f	-2663
잘	-2664
느	-2665
석	-2666
친	-2667
츠	-2668
항	-2669
랑	-2670
팀	-2671
잡	-2672
블	-2673
b	-2674
족	-2675
~	-2676
w	-2677
탄	-2678
K	-2679
담	-2680
류	-2681
릭	-2682
클	-2683
듯	-2684
볼	-2685
증	-2686
럼	-2687
뒤	-2688
량	-2689
총	-2690
엔	-2691
손	-2692
먹	-2693
V	-2694
료	-2695
광	-2696
품	-2697
긴	-2698
쪽	-2699
녀	-2700
퍼	-2701
송	-2702
폭	-2703
께	-2704
졌	-2705
높	-2706
탈	-2707
백	-2708
케	-2709
곡	-2710
령	-2711
범	-2712
갈	-2713
접	-2714
v	-2715
글	-2716
완	-2717
%	-2718
색	-2719
극	-2720
길	-2721
련	-2722
창	-2723
킬	-2724
새	-2725
얼	-2726
검	-2727
H	-2728
채	-2729
누	-2730
+	-2731
힘	-2732
벌	-2733
효	-2734
혼	-2735
줄	-2736
렇	-2737
빠	-2738
겠	-2739
겨	-2740
충	-2741
밀	-2742
#	-2743
움	-2744
끝	-2745
철	-2746
락	-2747
즌	-2748
왔	-2749
닌	-2750
렸	-2751
험	-2752
귀	-2753
림	-2754
골	-2755
괴	-2756
쳐	-2757
W	-2758
넘	-2759
립	-2760
벨	-2761
삼	-2762
싸	-2763
슬	-2764
북	-2765
견	-2766
취	-2767
혀	-2768
몬	-2769
눈	-2770
곳	-2771
앞	-2772
육	-2773
슈	-2774
엄	-2775
희	-2776
착	-2777
택	-2778
U	-2779
X	-2780
냥	-2781
랜	-2782
놓	-2783
규	-2784
축	-2785
냐	-2786
득	-2787
늘	-2788
될	-2789
x	-2790
큰	-2791
째	-2792
틀	-2793
허	-2794
링	-2795
찾	-2796
맨	-2797
덕	-2798
쟁	-2799
책	-2800
릴	-2801
엘	-2802
템	-2803
턴	-2804
붙	-2805
팬	-2806
찬	-2807
응	-2808
및	-2809
므	-2810
널	-2811
몰	-2812
떨	-2813
뿐	-2814
침	-2815
얻	-2816
끼	-2817
측	-2818
{	-2819
봉	-2820
갑	-2821
둘	-2822
먼	-2823
첫	-2824
잠	-2825
징	-2826
굴	-2827
큼	-2828
벤	-2829
풀	-2830
몇	-2831
억	-2832
칭	-2833
암	-2834
쉬	-2835
획	-2836
곤	-2837
압	-2838
켜	-2839
율	-2840
률	-2841
찰	-2842
헤	-2843
답	-2844
혹	-2845
좀	-2846
밖	-2847
킨	-2848
짜	-2849
협	-2850
팔	-2851
떠	-2852
써	-2853
싶	-2854
갔	-2855
=	-2856
즉	-2857
났	-2858
센	-2859
훈	-2860
몸	-2861
밝	-2862
럽	-2863
씨	-2864
풍	-2865
궁	-2866
J	-2867
딜	-2868
홍	-2869
논	-2870
례	-2871
님	-2872
염	-2873
슷	-2874
휘	-2875
벽	-2876
]	-2877
빌	-2878
돈	-2879
넣	-2880
묘	-2881
쉽	-2882
웃	-2883
퇴	-2884
[	-2885
뉴	-2886
낮	-2887
숙	-2888
낸	-2889
컨	-2890
깨	-2891
봐	-2892
뛰	-2893
Y	-2894
탑	-2895
맡	-2896
칼	-2897
끌	-2898
쓸	-2899
찍	-2900
익	-2901
빈	-2902
층	-2903
슨	-2904
콘	-2905
꾸	-2906
갖	-2907
샤	-2908
앙	-2909
닛	-2910
략	-2911
옥	-2912
;	-2913
렌	-2914
폐	-2915
죄	-2916
멸	-2917
델	-2918
팅	-2919
딩	-2920
숨	-2921
킹	-2922
됐	-2923
컬	-2924
놀	-2925
멤	-2926
윤	-2927
홈	-2928
웅	-2929
욕	-2930
빨	-2931
씩	-2932
잔	-2933
웨	-2934
롤	-2935
짓	-2936
액	-2937
덤	-2938
<	-2939
뜨	-2940
·	-2941
욱	-2942
좌	-2943
닝	-2944
솔	-2945
텐	-2946
→	-2947
쇼	-2948
롯	-2949
꽤	-2950
멀	-2951
い	-2952
콜	-2953
듣	-2954
픽	-2955
싱	-2956
&	-2957
빛	-2958
힌	-2959
념	-2960
흑	-2961
낙	-2962
の	-2963
냈	-2964
겼	-2965
뜻	-2966
칸	-2967
왜	-2968
농	-2969
폰	-2970
켓	-2971
칠	-2972
척	-2973
맥	-2974
헌	-2975
뮤	-2976
맹	-2977
z	-2978
빼	-2979
혈	-2980
흥	-2981
섬	-2982
롭	-2983
닥	-2984
끔	-2985
객	-2986
앨	-2987
튜	-2988
램	-2989
탁	-2990
휴	-2991
렉	-2992
닉	-2993
푸	-2994
떤	-2995
튼	-2996
랙	-2997
흔	-2998
십	-2999
폴	-3000
듀	-3001
룡	-3002
찌	-3003
넷	-3004
맵	-3005
뽑	-3006
큐	-3007
렵	-3008
럭	-3009
혁	-3010
랭	-3011
맛	-3012
뀌	-3013
Z	-3014
떻	-3015
\	-3016
씬	-3017
굉	-3018
혜	-3019
균	-3020
땅	-3021
딸	-3022
빙	-3023
죠	-3024
な	-3025
갤	-3026
짝	-3027
딱	-3028
홀	-3029
뷰	-3030
돼	-3031
녹	-3032
잃	-3033
텔	-3034
졸	-3035
컴	-3036
쳤	-3037
둔	-3038
멘	-3039
밍	-3040
힐	-3041
혔	-3042
탐	-3043
젠	-3044
뭐	-3045
밥	-3046
웠	-3047
て	-3048
핵	-3049
콤	-3050
흡	-3051
톤	-3052
찮	-3053
밤	-3054
헬	-3055
털	-3056
뢰	-3057
쿨	-3058
탕	-3059
쓴	-3060
줬	-3061
흐	-3062
덱	-3063
꽃	-3064
컵	-3065
옷	-3066
퀘	-3067
챔	-3068
즐	-3069
꼬	-3070
춘	-3071
꿈	-3072
꺼	-3073
셀	-3074
몽	-3075
줘	-3076
’	-3077
펜	-3078
묻	-3079
둥	-3080
팩	-3081
봇	-3082
믹	-3083
셔	-3084
삭	-3085
룹	-3086
믿	-3087
젤	-3088
쌍	-3089
た	-3090
밴	-3091
윈	-3092
똑	-3093
ー	-3094
옆	-3095
켰	-3096
뷔	-3097
겐	-3098
랐	-3099
릿	-3100
탱	-3101
뇌	-3102
놈	-3103
깔	-3104
짐	-3105
납	-3106
훨	-3107
얘	-3108
핑	-3109
틴	-3110
엇	-3111
괜	-3112
섭	-3113
낌	-3114
싫	-3115
탓	-3116
춰	-3117
쿄	-3118
낼	-3119
엑	-3120
곧	-3121
》	-3122
롱	-3123
《	-3124
*	-3125
핀	-3126
켄	-3127
し	-3128
덴	-3129
셈	-3130
벗	-3131
랄	-3132
봤	-3133
칙	-3134
읽	-3135
럴	-3136
_	-3137
옵	-3138
잉	-3139
굳	-3140
끊	-3141
짧	-3142
に	-3143
る	-3144
캠	-3145
★	-3146
퓨	-3147
콩	-3148
붕	-3149
덜	-3150
렀	-3151
っ	-3152
Q	-3153
‘	-3154
앤	-3155
빅	-3156
끄	-3157
꾼	-3158
」	-3159
「	-3160
흘	-3161
랍	-3162
셋	-3163
틱	-3164
룬	-3165
멜	-3166
쇄	-3167
폼	-3168
촌	-3169
>	-3170
튀	-3171
}	-3172
앗	-3173
か	-3174
펙	-3175
뒷	-3176
닐	-3177
넓	-3178
륙	-3179
둠	-3180
촉	-3181
셉	-3182
즘	-3183
늦	-3184
냉	-3185
쁘	-3186
j	-3187
쌓	-3188
겁	-3189
쥬	-3190
펼	-3191
덩	-3192
ン	-3193
と	-3194
떡	-3195
겸	-3196
깝	-3197
깊	-3198
렬	-3199
딘	-3200
う	-3201
값	-3202
왼	-3203
쯤	-3204
빵	-3205
쏘	-3206
ん	-3207
븐	-3208
쇠	-3209
쫓	-3210
”	-3211
밑	-3212
뿌	-3213
“	-3214
첩	-3215
픈	-3216
젝	-3217
컷	-3218
ら	-3219
は	-3220
촬	-3221
뭔	-3222
꼭	-3223
も	-3224
앉	-3225
잇	-3226
쥐	-3227
펠	-3228
틸	-3229
샷	-3230
で	-3231
옛	-3232
웹	-3233
걱	-3234
겪	-3235
띄	-3236
☆	-3237
퀴	-3238
슴	-3239
셜	-3240
묵	-3241
랫	-3242
뻔	-3243
랩	-3244
융	-3245
깐	-3246
껴	-3247
흉	-3248
뚫	-3249
댄	-3250
멋	-3251
붉	-3252
멍	-3253
꼽	-3254
れ	-3255
옮	-3256
렛	-3257
밸	-3258
を	-3259
룰	-3260
텍	-3261
く	-3262
겹	-3263
옹	-3264
댓	-3265
엽	-3266
ま	-3267
が	-3268
캔	-3269
챙	-3270
텀	-3271
캡	-3272
춤	-3273
혐	-3274
쁜	-3275
잭	-3276
럿	-3277
엠	-3278
셰	-3279
잖	-3280
섞	-3281
숲	-3282
낫	-3283
섯	-3284
웬	-3285
헨	-3286
잊	-3287
り	-3288
뜬	-3289
だ	-3290
멈	-3291
넥	-3292
녕	-3293
킥	-3294
꼴	-3295
톨	-3296
갱	-3297
톱	-3298
얀	-3299
틈	-3300
톰	-3301
こ	-3302
숫	-3303
・	-3304
젊	-3305
썼	-3306
맺	-3307
몹	-3308
엉	-3309
듬	-3310
닫	-3311
q	-3312
닮	-3313
넌	-3314
뱀	-3315
쾌	-3316
、	-3317
윙	-3318
イ	-3319
벼	-3320
떼	-3321
렐	-3322
뤄	-3323
꿔	-3324
き	-3325
윌	-3326
짤	-3327
펀	-3328
됨	-3329
툰	-3330
끈	-3331
훌	-3332
팡	-3333
쩔	-3334
묶	-3335
핸	-3336
ス	-3337
좁	-3338
짱	-3339
샌	-3340
깎	-3341
렘	-3342
よ	-3343
깃	-3344
싼	-3345
빗	-3346
뱅	-3347
ル	-3348
삶	-3349
뀐	-3350
궤	-3351
탯	-3352
밟	-3353
봄	-3354
륜	-3355
갓	-3356
あ	-3357
읍	-3358
첨	-3359
꿀	-3360
렙	-3361
숭	-3362
롬	-3363
덮	-3364
빔	-3365
륭	-3366
곰	-3367
렴	-3368
룩	-3369
×	-3370
퀄	-3371
ラ	-3372
켈	-3373
빡	-3374
쩌	-3375
す	-3376
룸	-3377
け	-3378
낭	-3379
|	-3380
눌	-3381
쿼	-3382
탠	-3383
뉘	-3384
쏟	-3385
랬	-3386
さ	-3387
맘	-3388
닿	-3389
땐	-3390
릇	-3391
셨	-3392
긍	-3393
섰	-3394
삽	-3395
흰	-3396
곽	-3397
츄	-3398
넬	-3399
낳	-3400
윗	-3401
렁	-3402
둑	-3403
。	-3404
녔	-3405
앵	-3406
大	-3407
ト	-3408
횟	-3409
팽	-3410
뚜	-3411
샘	-3412
늑	-3413
낚	-3414
퀸	-3415
릉	-3416
껏	-3417
뼈	-3418
겟	-3419
え	-3420
걷	-3421
쨌	-3422
リ	-3423
ち	-3424
팝	-3425
첼	-3426
섹	-3427
낀	-3428
톡	-3429
ッ	-3430
뜩	-3431
넉	-3432
뭉	-3433
そ	-3434
삐	-3435
꺾	-3436
훔	-3437
』	-3438
덧	-3439
『	-3440
냄	-3441
쩡	-3442
딴	-3443
펴	-3444
前	-3445
챠	-3446
뚱	-3447
얄	-3448
つ	-3449
핏	-3450
툴	-3451
곱	-3452
닭	-3453
앱	-3454
슛	-3455
뜯	-3456
썩	-3457
핫	-3458
쭉	-3459
ア	-3460
됩	-3461
쟈	-3462
썬	-3463
겉	-3464
벅	-3465
엮	-3466
ク	-3467
쏠	-3468
人	-3469
킷	-3470
中	-3471
챕	-3472
왈	-3473
엣	-3474
횡	-3475
^	-3476
뻐	-3477
찔	-3478
햄	-3479
곁	-3480
낄	-3481
썰	-3482
펫	-3483
돕	-3484
멕	-3485
깜	-3486
줌	-3487
펑	-3488
훗	-3489
뿔	-3490
뺏	-3491
턱	-3492
꽂	-3493
み	-3494
볍	-3495
깡	-3496
日	-3497
ᆞ	-3498
쉐	-3499
똥	-3500
웰	-3501
녁	-3502
돋	-3503
わ	-3504
잦	-3505
め	-3506
갇	-3507
왠	-3508
긋	-3509
뿜	-3510
흠	-3511
쩍	-3512
お	-3513
一	-3514
닷	-3515
─	-3516
뚝	-3517
쉴	-3518
뱃	-3519
쏴	-3520
괄	-3521
뭘	-3522
띠	-3523
싹	-3524
눠	-3525
○	-3526
듭	-3527
챌	-3528
딕	-3529
빚	-3530
챈	-3531
@	-3532
펄	-3533
シ	-3534
릎	-3535
놔	-3536
넨	-3537
ド	-3538
칩	-3539
섀	-3540
헛	-3541
씹	-3542
놨	-3543
맷	-3544
뮬	-3545
キ	-3546
뒀	-3547
ど	-3548
꼼	-3549
훼	-3550
↓	-3551
찢	-3552
•	-3553
탭	-3554
딧	-3555
子	-3556
컸	-3557
몫	-3558
뎀	-3559
잎	-3560
밋	-3561
엿	-3562
レ	-3563
멧	-3564
헐	-3565
둬	-3566
밭	-3567
푼	-3568
ゃ	-3569
튕	-3570
엎	-3571
쵸	-3572
じ	-3573
タ	-3574
ᄏ	-3575
ロ	-3576
딪	-3577
붓	-3578
カ	-3579
팟	-3580
マ	-3581
а	-3582
깥	-3583
펌	-3584
밌	-3585
●	-3586
씌	-3587
벙	-3588
킴	-3589
せ	-3590
굿	-3591
겔	-3592
힙	-3593
】	-3594
【	-3595
※	-3596
슐	-3597
옴	-3598
휩	-3599
픔	-3600
뽀	-3601
뻗	-3602
캣	-3603
쌀	-3604
풋	-3605
옳	-3606
ね	-3607
퉁	-3608
о	-3609
돔	-3610
텝	-3611
꼈	-3612
쿤	-3613
콧	-3614
듈	-3615
フ	-3616
뱉	-3617
흩	-3618
흙	-3619
벳	-3620
ジ	-3621
山	-3622
や	-3623
늬	-3624
툭	-3625
天	-3626
←	-3627
솜	-3628
휠	-3629
君	-3630
벡	-3631
툼	-3632
껍	-3633
팍	-3634
뻥	-3635
쏜	-3636
냅	-3637
췄	-3638
땡	-3639
캘	-3640
–	-3641
텟	-3642
콥	-3643
■	-3644
쑤	-3645
샵	-3646
헝	-3647
神	-3648
솟	-3649
쪼	-3650
갯	-3651
♪	-3652
コ	-3653
王	-3654
テ	-3655
뭇	-3656
꿰	-3657
샬	-3658
캄	-3659
칫	-3660
끓	-3661
갚	-3662
늄	-3663
金	-3664
꽉	-3665
見	-3666
и	-3667
굵	-3668
첸	-3669
ば	-3670
↘	-3671
붐	-3672
е	-3673
バ	-3674
オ	-3675
チ	-3676
굽	-3677
上	-3678
튬	-3679
늙	-3680
끗	-3681
킵	-3682
ろ	-3683
궐	-3684
生	-3685
쿵	-3686
햇	-3687
é	-3688
젖	-3689
씀	-3690
볶	-3691
н	-3692
썸	-3693
ウ	-3694
팁	-3695
밈	-3696
ィ	-3697
ミ	-3698
헷	-3699
귄	-3700
〉	-3701
$	-3702
本	-3703
얽	-3704
〈	-3705
ナ	-3706
앰	-3707
田	-3708
三	-3709
꿨	-3710
얹	-3711
짙	-3712
サ	-3713
긁	-3714
쫄	-3715
쫒	-3716
퍽	-3717
뤼	-3718
出	-3719
줍	-3720
콕	-3721
륨	-3722
옐	-3723
숴	-3724
큘	-3725
月	-3726
귤	-3727
겜	-3728
짖	-3729
メ	-3730
깽	-3731
눕	-3732
닦	-3733
쯔	-3734
ャ	-3735
ム	-3736
▲	-3737
今	-3738
퀵	-3739
↔	-3740
츤	-3741
ᄋ	-3742
넛	-3743
ず	-3744
맙	-3745
р	-3746
ハ	-3747
～	-3748
짚	-3749
셸	-3750
텨	-3751
ュ	-3752
캇	-3753
行	-3754
プ	-3755
렷	-3756
잼	-3757
탔	-3758
샐	-3759
젬	-3760
펭	-3761
뇨	-3762
젯	-3763
道	-3764
デ	-3765
팜	-3766
랴	-3767
뻘	-3768
高	-3769
世	-3770
꽁	-3771
잣	-3772
콰	-3773
앓	-3774
明	-3775
手	-3776
二	-3777
気	-3778
떴	-3779
웜	-3780
댐	-3781
댈	-3782
뮌	-3783
팰	-3784
グ	-3785
無	-3786
뽕	-3787
얇	-3788
女	-3789
뜰	-3790
エ	-3791
탬	-3792
샀	-3793
ダ	-3794
씻	-3795
뉜	-3796
パ	-3797
ブ	-3798
쨩	-3799
쑥	-3800
ニ	-3801
愛	-3802
윽	-3803
不	-3804
年	-3805
헥	-3806
젼	-3807
心	-3808
홉	-3809
랏	-3810
時	-3811
얌	-3812
°	-3813
맑	-3814
짬	-3815
小	-3816
낯	-3817
슌	-3818
ᅳ	-3819
뤘	-3820
땀	-3821
왓	-3822
댔	-3823
홋	-3824
т	-3825
國	-3826
샹	-3827
ょ	-3828
짠	-3829
с	-3830
之	-3831
욘	-3832
光	-3833
文	-3834
텅	-3835
굶	-3836
東	-3837
空	-3838
―	-3839
뺨	-3840
ガ	-3841
삿	-3842
꿉	-3843
地	-3844
新	-3845
□	-3846
事	-3847
젓	-3848
ノ	-3849
李	-3850
川	-3851
言	-3852
ᄃ	-3853
늪	-3854
美	-3855
▶	-3856
私	-3857
쁨	-3858
궈	-3859
튠	-3860
퐁	-3861
十	-3862
껑	-3863
껄	-3864
モ	-3865
꾀	-3866
옌	-3867
윕	-3868
水	-3869
僕	-3870
夢	-3871
海	-3872
똘	-3873
魔	-3874
꿇	-3875
へ	-3876
в	-3877
캉	-3878
来	-3879
木	-3880
花	-3881
風	-3882
л	-3883
푹	-3884
ᄒ	-3885
ひ	-3886
딥	-3887
太	-3888
갸	-3889
何	-3890
뜸	-3891
自	-3892
家	-3893
現	-3894
↙	-3895
꽝	-3896
法	-3897
뺀	-3898
間	-3899
숍	-3900
星	-3901
公	-3902
ふ	-3903
뛴	-3904
下	-3905
찐	-3906
밧	-3907
界	-3908
к	-3909
ズ	-3910
쌔	-3911
長	-3912
ョ	-3913
者	-3914
쐐	-3915
컫	-3916
폿	-3917
깁	-3918
†	-3919
げ	-3920
白	-3921
샨	-3922
方	-3923
び	-3924
쎄	-3925
닙	-3926
맴	-3927
벚	-3928
的	-3929
城	-3930
쥰	-3931
合	-3932
分	-3933
ワ	-3934
뽐	-3935
野	-3936
目	-3937
思	-3938
ほ	-3939
ゆ	-3940
知	-3941
낡	-3942
南	-3943
正	-3944
全	-3945
륵	-3946
ツ	-3947
싯	-3948
룻	-3949
部	-3950
α	-3951
ビ	-3952
ᄂ	-3953
릅	-3954
쉘	-3955
덥	-3956
걀	-3957
훅	-3958
安	-3959
쭈	-3960
룽	-3961
む	-3962
◆	-3963
▷	-3964
夜	-3965
音	-3966
♡	-3967
色	-3968
ᄀ	-3969
얕	-3970
깍	-3971
平	-3972
굼	-3973
찜	-3974
改	-3975
깰	-3976
핍	-3977
ᄉ	-3978
セ	-3979
쌈	-3980
ご	-3981
原	-3982
力	-3983
`	-3984
뛸	-3985
軍	-3986
ェ	-3987
龍	-3988
九	-3989
뀔	-3990
立	-3991
땜	-3992
깬	-3993
씁	-3994
寺	-3995
숀	-3996
ボ	-3997
빽	-3998
둡	-3999
썹	-4000
ぎ	-4001
챘	-4002
会	-4003
댕	-4004
벵	-4005
笑	-4006
武	-4007
윅	-4008
뎌	-4009
덫	-4010
元	-4011
ᄅ	-4012
州	-4013
ぐ	-4014
훤	-4015
멩	-4016
△	-4017
和	-4018
싣	-4019
ネ	-4020
西	-4021
—	-4022
歌	-4023
国	-4024
샴	-4025
쥔	-4026
ü	-4027
숏	-4028
ァ	-4029
我	-4030
石	-4031
真	-4032
탤	-4033
ピ	-4034
好	-4035
д	-4036
士	-4037
成	-4038
陽	-4039
物	-4040
웍	-4041
떄	-4042
北	-4043
왑	-4044
四	-4045
後	-4046
쩐	-4047
少	-4048
信	-4049
動	-4050
뾰	-4051
ぶ	-4052
꿍	-4053
왁	-4054
作	-4055
戦	-4056
뚤	-4057
돗	-4058
깠	-4059
캬	-4060
想	-4061
쌩	-4062
學	-4063
火	-4064
‧	-4065
島	-4066
義	-4067
뺑	-4068
宮	-4069
五	-4070
名	-4071
理	-4072
書	-4073
↑	-4074
ケ	-4075
캅	-4076
恋	-4077
ᅲ	-4078
맏	-4079
ᄆ	-4080
命	-4081
켠	-4082
늠	-4083
팻	-4084
뎅	-4085
꾹	-4086
主	-4087
촛	-4088
뫼	-4089
死	-4090
좆	-4091
띈	-4092
눅	-4093
未	-4094
넵	-4095
갭	-4096
⁄	-4097
面	-4098
뻑	-4099
м	-4100
春	-4101
流	-4102
最	-4103
ゴ	-4104
里	-4105
べ	-4106
所	-4107
有	-4108
扮	-4109
社	-4110
千	-4111
á	-4112
쉰	-4113
八	-4114
찼	-4115
칵	-4116
췌	-4117
찝	-4118
ا	-4119
場	-4120
쉔	-4121
藤	-4122
딛	-4123
꿋	-4124
度	-4125
聖	-4126
韓	-4127
先	-4128
뭣	-4129
솥	-4130
曰	-4131
ヤ	-4132
퀀	-4133
重	-4134
ᄌ	-4135
門	-4136
빴	-4137
멱	-4138
村	-4139
馬	-4140
記	-4141
랠	-4142
괭	-4143
代	-4144
通	-4145
遠	-4146
낱	-4147
◇	-4148
朝	-4149
읊	-4150
葉	-4151
꼰	-4152
永	-4153
切	-4154
й	-4155
у	-4156
괘	-4157
잽	-4158
짊	-4159
誰	-4160
学	-4161
感	-4162
ポ	-4163
使	-4164
都	-4165
잿	-4166
化	-4167
즙	-4168
퀑	-4169
飛	-4170
口	-4171
█	-4172
셧	-4173
民	-4174
덟	-4175
同	-4176
林	-4177
楽	-4178
얏	-4179
핌	-4180
々	-4181
빤	-4182
댁	-4183
섣	-4184
얗	-4185
ギ	-4186
ヒ	-4187
華	-4188
夏	-4189
第	-4190
井	-4191
院	-4192
ベ	-4193
ソ	-4194
外	-4195
팸	-4196
슘	-4197
랗	-4198
市	-4199
意	-4200
띵	-4201
얍	-4202
変	-4203
껌	-4204
古	-4205
超	-4206
駅	-4207
向	-4208
ö	-4209
쁠	-4210
ᄇ	-4211
宗	-4212
相	-4213
皇	-4214
렝	-4215
江	-4216
옅	-4217
♥	-4218
츳	-4219
百	-4220
팥	-4221
짭	-4222
뭄	-4223
ä	-4224
七	-4225
松	-4226
쥴	-4227
콴	-4228
張	-4229
엥	-4230
쏙	-4231
썽	-4232
語	-4233
帝	-4234
郎	-4235
在	-4236
셴	-4237
폄	-4238
夫	-4239
뮐	-4240
役	-4241
校	-4242
à	-4243
氏	-4244
開	-4245
찻	-4246
뷸	-4247
ゅ	-4248
京	-4249
딤	-4250
持	-4251
情	-4252
兵	-4253
身	-4254
羅	-4255
뿅	-4256
性	-4257
◎	-4258
켐	-4259
會	-4260
쿡	-4261
μ	-4262
닳	-4263
힛	-4264
入	-4265
路	-4266
깅	-4267
ā	-4268
德	-4269
像	-4270
눔	-4271
걔	-4272
強	-4273
ο	-4274
史	-4275
男	-4276
뇽	-4277
ホ	-4278
顔	-4279
定	-4280
뎁	-4281
я	-4282
回	-4283
六	-4284
쳇	-4285
刀	-4286
쟤	-4287
샛	-4288
궂	-4289
퀼	-4290
씽	-4291
톳	-4292
츈	-4293
多	-4294
넴	-4295
뎃	-4296
守	-4297
以	-4298
횃	-4299
進	-4300
ゲ	-4301
師	-4302
香	-4303
갉	-4304
舊	-4305
谷	-4306
勝	-4307
ヴ	-4308
〜	-4309
ぬ	-4310
ザ	-4311
햐	-4312
↗	-4313
ぼ	-4314
仁	-4315
촘	-4316
꺽	-4317
ぜ	-4318
귓	-4319
司	-4320
河	-4321
雲	-4322
体	-4323
컥	-4324
初	-4325
望	-4326
青	-4327
츰	-4328
뱌	-4329
ы	-4330
鬼	-4331
믈	-4332
쿰	-4333
쑨	-4334
解	-4335
政	-4336
г	-4337
土	-4338
ぁ	-4339
良	-4340
伝	-4341
待	-4342
終	-4343
ざ	-4344
声	-4345
舞	-4346
п	-4347
府	-4348
텃	-4349
ь	-4350
맣	-4351
펩	-4352
솝	-4353
땄	-4354
í	-4355
達	-4356
止	-4357
字	-4358
様	-4359
찡	-4360
可	-4361
次	-4362
線	-4363
造	-4364
ل	-4365
願	-4366
実	-4367
直	-4368
機	-4369
핥	-4370
吉	-4371
漢	-4372
官	-4373
車	-4374
堂	-4375
消	-4376
윳	-4377
씰	-4378
숄	-4379
由	-4380
땠	-4381
넋	-4382
足	-4383
ν	-4384
洞	-4385
用	-4386
춥	-4387
ó	-4388
利	-4389
С	-4390
팎	-4391
聞	-4392
秋	-4393
쾅	-4394
팠	-4395
쟝	-4396
電	-4397
食	-4398
ペ	-4399
始	-4400
園	-4401
運	-4402
쉼	-4403
숱	-4404
赤	-4405
雨	-4406
곶	-4407
玉	-4408
能	-4409
쌤	-4410
福	-4411
英	-4412
ぱ	-4413
殺	-4414
絶	-4415
御	-4416
숟	-4417
끽	-4418
∼	-4419
曲	-4420
集	-4421
指	-4422
反	-4423
戰	-4424
텼	-4425
ı	-4426
臣	-4427
봅	-4428
놋	-4429
縣	-4430
也	-4431
味	-4432
è	-4433
話	-4434
б	-4435
띤	-4436
興	-4437
雪	-4438
뺐	-4439
ぞ	-4440
걍	-4441
ォ	-4442
式	-4443
落	-4444
甲	-4445
⋯	-4446
輝	-4447
佐	-4448
志	-4449
쐈	-4450
쌌	-4451
黒	-4452
劍	-4453
헉	-4454
▼	-4455
如	-4456
走	-4457
ぇ	-4458
内	-4459
將	-4460
幸	-4461
앳	-4462
屋	-4463
過	-4464
波	-4465
歩	-4466
郡	-4467
当	-4468
뮈	-4469
ᅡ	-4470
加	-4471
連	-4472
춧	-4473
τ	-4474
優	-4475
続	-4476
奈	-4477
갬	-4478
果	-4479
휙	-4480
ヨ	-4481
隊	-4482
웡	-4483
眞	-4484
떳	-4485
決	-4486
形	-4487
影	-4488
町	-4489
友	-4490
톈	-4491
맬	-4492
阿	-4493
久	-4494
삑	-4495
づ	-4496
頭	-4497
鳥	-4498
ᆯ	-4499
쑹	-4500
녜	-4501
結	-4502
悪	-4503
越	-4504
貴	-4505
熱	-4506
엌	-4507
눴	-4508
術	-4509
ч	-4510
業	-4511
別	-4512
景	-4513
쎈	-4514
깼	-4515
헴	-4516
橋	-4517
朴	-4518
忘	-4519
靑	-4520
з	-4521
텁	-4522
ι	-4523
컹	-4524
込	-4525
ユ	-4526
近	-4527
常	-4528
伊	-4529
特	-4530
極	-4531
等	-4532
萬	-4533
ρ	-4534
是	-4535
엡	-4536
ε	-4537
촐	-4538
밉	-4539
對	-4540
‐	-4541
雷	-4542
衛	-4543
抱	-4544
氣	-4545
經	-4546
ᅵ	-4547
뼛	-4548
咲	-4549
取	-4550
슝	-4551
驛	-4552
母	-4553
紅	-4554
뺄	-4555
俺	-4556
彼	-4557
勇	-4558
節	-4559
튤	-4560
胸	-4561
Φ	-4562
잰	-4563
治	-4564
뒹	-4565
離	-4566
鄭	-4567
崎	-4568
殿	-4569
찹	-4570
制	-4571
캥	-4572
忠	-4573
ə	-4574
魂	-4575
즛	-4576
善	-4577
ς	-4578
素	-4579
놉	-4580
녘	-4581
딨	-4582
奇	-4583
血	-4584
要	-4585
親	-4586
핼	-4587
然	-4588
ω	-4589
敵	-4590
폈	-4591
튄	-4592
教	-4593
펍	-4594
쥘	-4595
番	-4596
起	-4597
퓌	-4598
麗	-4599
津	-4600
줏	-4601
放	-4602
破	-4603
羽	-4604
돛	-4605
非	-4606
ن	-4607
緒	-4608
保	-4609
森	-4610
웁	-4611
쟌	-4612
祖	-4613
傳	-4614
內	-4615
욤	-4616
限	-4617
뿍	-4618
付	-4619
父	-4620
윔	-4621
짰	-4622
ر	-4623
쾨	-4624
呼	-4625
周	-4626
삥	-4627
沢	-4628
잤	-4629
갛	-4630
希	-4631
打	-4632
昌	-4633
深	-4634
챗	-4635
届	-4636
議	-4637
慶	-4638
族	-4639
雄	-4640
쓱	-4641
涙	-4642
撃	-4643
볕	-4644
敎	-4645
뻣	-4646
륀	-4647
م	-4648
갠	-4649
球	-4650
銀	-4651
뇰	-4652
探	-4653
듦	-4654
智	-4655
期	-4656
覚	-4657
宇	-4658
뗀	-4659
共	-4660
台	-4661
쫙	-4662
꿎	-4663
得	-4664
趙	-4665
ゼ	-4666
紀	-4667
냠	-4668
댑	-4669
볐	-4670
草	-4671
工	-4672
器	-4673
派	-4674
必	-4675
듄	-4676
黃	-4677
樂	-4678
А	-4679
修	-4680
듐	-4681
숯	-4682
힉	-4683
孫	-4684
휼	-4685
К	-4686
́	-4687
樹	-4688
쪄	-4689
迷	-4690
其	-4691
퓰	-4692
ō	-4693
뻤	-4694
ヘ	-4695
ī	-4696
鮮	-4697
完	-4698
功	-4699
쫀	-4700
追	-4701
ᄎ	-4702
乙	-4703
而	-4704
멥	-4705
來	-4706
뗄	-4707
去	-4708
뵤	-4709
故	-4710
柳	-4711
速	-4712
館	-4713
科	-4714
章	-4715
»	-4716
쾰	-4717
虎	-4718
対	-4719
欲	-4720
묠	-4721
꺄	-4722
쬐	-4723
振	-4724
泣	-4725
暗	-4726
긱	-4727
令	-4728
居	-4729
剣	-4730
失	-4731
交	-4732
泉	-4733
闇	-4734
岡	-4735
丸	-4736
違	-4737
沙	-4738
М	-4739
ي	-4740
끙	-4741
鳴	-4742
幻	-4743
悲	-4744
精	-4745
桜	-4746
着	-4747
老	-4748
훑	-4749
根	-4750
街	-4751
遊	-4752
旅	-4753
基	-4754
異	-4755
姫	-4756
ᆡ	-4757
ᅮ	-4758
펨	-4759
낑	-4760
論	-4761
孝	-4762
崔	-4763
뵈	-4764
負	-4765
左	-4766
竹	-4767
衣	-4768
受	-4769
λ	-4770
源	-4771
х	-4772
️	-4773
号	-4774
됬	-4775
那	-4776
淸	-4777
쨋	-4778
画	-4779
쭤	-4780
任	-4781
你	-4782
뵙	-4783
炎	-4784
渡	-4785
支	-4786
陵	-4787
몄	-4788
꽈	-4789
∞	-4790
猫	-4791
〔	-4792
뿡	-4793
技	-4794
照	-4795
踊	-4796
슥	-4797
仲	-4798
و	-4799
禮	-4800
〕	-4801
坂	-4802
샅	-4803
返	-4804
祭	-4805
引	-4806
權	-4807
護	-4808
抜	-4809
早	-4810
劉	-4811
爲	-4812
麻	-4813
롄	-4814
傷	-4815
앴	-4816
輪	-4817
狂	-4818
散	-4819
佛	-4820
広	-4821
残	-4822
翼	-4823
服	-4824
紙	-4825
発	-4826
邪	-4827
跡	-4828
室	-4829
突	-4830
丁	-4831
먀	-4832
♯	-4833
첵	-4834
ú	-4835
В	-4836
홧	-4837
考	-4838
侯	-4839
秀	-4840
團	-4841
浦	-4842
背	-4843
若	-4844
彩	-4845
降	-4846
后	-4847
尾	-4848
竜	-4849
響	-4850
朱	-4851
甘	-4852
錄	-4853
體	-4854
ì	-4855
半	-4856
슭	-4857
÷	-4858
靈	-4859
σ	-4860
眼	-4861
陳	-4862
報	-4863
巻	-4864
拳	-4865
늉	-4866
쭐	-4867
冬	-4868
秘	-4869
右	-4870
뀨	-4871
乃	-4872
表	-4873
ᄐ	-4874
귈	-4875
息	-4876
角	-4877
仕	-4878
κ	-4879
ᆫ	-4880
د	-4881
計	-4882
員	-4883
낵	-4884
倉	-4885
務	-4886
괌	-4887
닻	-4888
密	-4889
쇳	-4890
諸	-4891
빕	-4892
П	-4893
苦	-4894
選	-4895
β	-4896
備	-4897
至	-4898
許	-4899
ш	-4900
宣	-4901
Р	-4902
魚	-4903
了	-4904
ç	-4905
船	-4906
喜	-4907
博	-4908
仙	-4909
廣	-4910
욜	-4911
넝	-4912
눗	-4913
큭	-4914
約	-4915
酒	-4916
瞬	-4917
吹	-4918
ب	-4919
清	-4920
寧	-4921
痛	-4922
詩	-4923
텡	-4924
組	-4925
鏡	-4926
眠	-4927
黑	-4928
켤	-4929
鐵	-4930
純	-4931
戸	-4932
装	-4933
鳳	-4934
転	-4935
껐	-4936
順	-4937
洪	-4938
防	-4939
型	-4940
훙	-4941
滅	-4942
♤	-4943
満	-4944
片	-4945
関	-4946
位	-4947
於	-4948
尊	-4949
図	-4950
鉄	-4951
츨	-4952
ぽ	-4953
乗	-4954
茶	-4955
ᄑ	-4956
介	-4957
求	-4958
典	-4959
洋	-4960
問	-4961
調	-4962
땋	-4963
챤	-4964
富	-4965
首	-4966
助	-4967
康	-4968
泰	-4969
万	-4970
濟	-4971
品	-4972
季	-4973
斬	-4974
申	-4975
印	-4976
数	-4977
겅	-4978
ゥ	-4979
罪	-4980
π	-4981
욧	-4982
宝	-4983
♬	-4984
헹	-4985
束	-4986
實	-4987
唐	-4988
ᅩ	-4989
統	-4990
岩	-4991
쫑	-4992
視	-4993
難	-4994
뀜	-4995
団	-4996
玄	-4997
活	-4998
陰	-4999
菜	-5000
◾	-5001
急	-5002
騎	-5003
承	-5004
촨	-5005
ǎ	-5006
逃	-5007
具	-5008
塔	-5009
種	-5010
힝	-5011
弾	-5012
建	-5013
Н	-5014
裏	-5015
宙	-5016
省	-5017
鈴	-5018
帰	-5019
ː	-5020
賢	-5021
兄	-5022
射	-5023
妖	-5024
寶	-5025
꿩	-5026
念	-5027
湖	-5028
宋	-5029
逆	-5030
벰	-5031
矢	-5032
告	-5033
微	-5034
格	-5035
列	-5036
比	-5037
牛	-5038
壊	-5039
復	-5040
냔	-5041
ж	-5042
陸	-5043
威	-5044
γ	-5045
瀬	-5046
独	-5047
尹	-5048
肉	-5049
乱	-5050
튈	-5051
忍	-5052
怪	-5053
池	-5054
ぷ	-5055
샥	-5056
틋	-5057
為	-5058
映	-5059
О	-5060
攻	-5061
病	-5062
닢	-5063
律	-5064
豊	-5065
晴	-5066
鎭	-5067
郞	-5068
梅	-5069
냇	-5070
末	-5071
圖	-5072
ᅥ	-5073
座	-5074
秦	-5075
確	-5076
ゾ	-5077
他	-5078
關	-5079
Г	-5080
봬	-5081
条	-5082
闘	-5083
商	-5084
쏭	-5085
И	-5086
局	-5087
晉	-5088
艦	-5089
監	-5090
셌	-5091
刻	-5092
臺	-5093
烈	-5094
伯	-5095
究	-5096
┗	-5097
팼	-5098
彦	-5099
宿	-5100
ц	-5101
丈	-5102
再	-5103
犬	-5104
â	-5105
⇒	-5106
夕	-5107
繋	-5108
答	-5109
爆	-5110
♂	-5111
奏	-5112
쿈	-5113
育	-5114
Д	-5115
ぴ	-5116
넙	-5117
쉈	-5118
燃	-5119
系	-5120
送	-5121
奥	-5122
站	-5123
剛	-5124
警	-5125
햅	-5126
氷	-5127
隆	-5128
隠	-5129
皆	-5130
쿱	-5131
染	-5132
群	-5133
則	-5134
◈	-5135
뗏	-5136
弘	-5137
랖	-5138
俊	-5139
導	-5140
獄	-5141
瞳	-5142
産	-5143
與	-5144
ş	-5145
経	-5146
冷	-5147
巨	-5148
附	-5149
η	-5150
Ω	-5151
澤	-5152
壽	-5153
件	-5154
孤	-5155
毒	-5156
著	-5157
Б	-5158
發	-5159
씸	-5160
斗	-5161
及	-5162
己	-5163
毛	-5164
布	-5165
ß	-5166
判	-5167
禁	-5168
빰	-5169
딫	-5170
ù	-5171
ヲ	-5172
区	-5173
揺	-5174
賀	-5175
띌	-5176
좇	-5177
霊	-5178
吳	-5179
才	-5180
容	-5181
횬	-5182
延	-5183
娘	-5184
昭	-5185
浮	-5186
鼓	-5187
駆	-5188
≫	-5189
尙	-5190
數	-5191
맸	-5192
描	-5193
蓮	-5194
叶	-5195
逢	-5196
留	-5197
돤	-5198
筆	-5199
寄	-5200
遺	-5201
此	-5202
쩜	-5203
差	-5204
탉	-5205
存	-5206
配	-5207
嫌	-5208
넸	-5209
ê	-5210
′	-5211
憶	-5212
敬	-5213
耳	-5214
勢	-5215
땔	-5216
紫	-5217
巡	-5218
亭	-5219
牙	-5220
奴	-5221
鹿	-5222
編	-5223
儀	-5224
誠	-5225
奉	-5226
伸	-5227
멎	-5228
演	-5229
聲	-5230
獨	-5231
吾	-5232
υ	-5233
貞	-5234
Т	-5235
س	-5236
植	-5237
置	-5238
曹	-5239
梁	-5240
삘	-5241
陣	-5242
客	-5243
說	-5244
≪	-5245
沈	-5246
点	-5247
應	-5248
米	-5249
엾	-5250
閉	-5251
깻	-5252
静	-5253
궜	-5254
ά	-5255
蒼	-5256
説	-5257
休	-5258
観	-5259
細	-5260
盛	-5261
±	-5262
徐	-5263
将	-5264
程	-5265
鶴	-5266
健	-5267
숑	-5268
織	-5269
蔵	-5270
虹	-5271
予	-5272
ه	-5273
住	-5274
惑	-5275
뭍	-5276
類	-5277
죤	-5278
弱	-5279
坐	-5280
킁	-5281
妃	-5282
雅	-5283
ί	-5284
象	-5285
ē	-5286
叫	-5287
黄	-5288
惡	-5289
普	-5290
₩	-5291
骨	-5292
怖	-5293
憲	-5294
͡	-5295
ت	-5296
θ	-5297
−	-5298
絵	-5299
怒	-5300
快	-5301
敗	-5302
É	-5303
察	-5304
丹	-5305
姓	-5306
港	-5307
識	-5308
亜	-5309
克	-5310
悟	-5311
佳	-5312
붑	-5313
뺌	-5314
恵	-5315
ū	-5316
須	-5317
暴	-5318
荒	-5319
냑	-5320
斯	-5321
横	-5322
砂	-5323
壁	-5324
焼	-5325
登	-5326
蘭	-5327
죗	-5328
榮	-5329
쿳	-5330
쑈	-5331
研	-5332
區	-5333
領	-5334
恩	-5335
칰	-5336
震	-5337
步	-5338
營	-5339
砲	-5340
ヌ	-5341
侍	-5342
긔	-5343
ɪ	-5344
쭝	-5345
튿	-5346
ぃ	-5347
恐	-5348
辛	-5349
觀	-5350
묀	-5351
救	-5352
혓	-5353
ñ	-5354
触	-5355
總	-5356
뗐	-5357
双	-5358
妻	-5359
깟	-5360
ᄊ	-5361
戻	-5362
処	-5363
副	-5364
뵐	-5365
塚	-5366
弟	-5367
航	-5368
า	-5369
빳	-5370
楊	-5371
♭	-5372
温	-5373
뷜	-5374
쭘	-5375
떵	-5376
뮴	-5377
頃	-5378
包	-5379
姜	-5380
版	-5381
쩝	-5382
號	-5383
房	-5384
熊	-5385
ᄍ	-5386
因	-5387
辺	-5388
激	-5389
試	-5390
윾	-5391
刺	-5392
ᅦ	-5393
從	-5394
쨍	-5395
封	-5396
蘇	-5397
銅	-5398
零	-5399
桃	-5400
胡	-5401
劇	-5402
윷	-5403
嘘	-5404
ा	-5405
提	-5406
ᇰ	-5407
峰	-5408
裕	-5409
踏	-5410
題	-5411
応	-5412
準	-5413
꼿	-5414
€	-5415
投	-5416
略	-5417
製	-5418
變	-5419
刃	-5420
覇	-5421
ぺ	-5422
創	-5423
旋	-5424
珠	-5425
ǐ	-5426
店	-5427
辰	-5428
退	-5429
亡	-5430
旗	-5431
断	-5432
浩	-5433
δ	-5434
境	-5435
又	-5436
注	-5437
獣	-5438
­	-5439
干	-5440
弓	-5441
薩	-5442
쪘	-5443
藏	-5444
蛇	-5445
ی	-5446
童	-5447
臨	-5448
뜀	-5449
®	-5450
管	-5451
몆	-5452
짢	-5453
狼	-5454
瑞	-5455
仮	-5456
쌘	-5457
ˈ	-5458
錫	-5459
ᅀ	-5460
훠	-5461
≤	-5462
參	-5463
擊	-5464
쉿	-5465
習	-5466
裂	-5467
量	-5468
魏	-5469
央	-5470
与	-5471
ร	-5472
嘉	-5473
볏	-5474
ю	-5475
丘	-5476
衆	-5477
굇	-5478
♧	-5479
兒	-5480
§	-5481
賊	-5482
ᄁ	-5483
于	-5484
梨	-5485
弥	-5486
端	-5487
段	-5488
쇤	-5489
協	-5490
致	-5491
級	-5492
헵	-5493
刑	-5494
乾	-5495
條	-5496
域	-5497
齊	-5498
둣	-5499
益	-5500
찧	-5501
供	-5502
練	-5503
舍	-5504
섕	-5505
板	-5506
퓸	-5507
̊	-5508
姉	-5509
庭	-5510
摩	-5511
燕	-5512
依	-5513
姿	-5514
県	-5515
似	-5516
爪	-5517
∀	-5518
큥	-5519
當	-5520
農	-5521
鍾	-5522
奪	-5523
捨	-5524
昇	-5525
岸	-5526
哲	-5527
吸	-5528
ё	-5529
惠	-5530
翔	-5531
呂	-5532
黨	-5533
押	-5534
例	-5535
職	-5536
飯	-5537
У	-5538
環	-5539
掌	-5540
빻	-5541
倒	-5542
♣	-5543
░	-5544
寒	-5545
督	-5546
徳	-5547
뒈	-5548
誓	-5549
到	-5550
콸	-5551
웩	-5552
妹	-5553
寂	-5554
邑	-5555
悔	-5556
烏	-5557
料	-5558
뮨	-5559
ό	-5560
更	-5561
ǒ	-5562
强	-5563
웸	-5564
菩	-5565
處	-5566
옙	-5567
混	-5568
雙	-5569
呪	-5570
頂	-5571
⠄	-5572
墨	-5573
葛	-5574
養	-5575
ぉ	-5576
柱	-5577
革	-5578
頑	-5579
巖	-5580
毎	-5581
淵	-5582
円	-5583
ᅢ	-5584
≥	-5585
쐬	-5586
æ	-5587
冠	-5588
槍	-5589
ᠠ	-5590
轉	-5591
셍	-5592
茂	-5593
際	-5594
띔	-5595
溢	-5596
❁	-5597
亂	-5598
就	-5599
浪	-5600
積	-5601
餘	-5602
젔	-5603
َ	-5604
읏	-5605
ò	-5606
幕	-5607
移	-5608
뎠	-5609
露	-5610
参	-5611
構	-5612
崇	-5613
젭	-5614
側	-5615
祈	-5616
탰	-5617
険	-5618
亞	-5619
꽥	-5620
態	-5621
途	-5622
흄	-5623
썅	-5624
謝	-5625
ع	-5626
伏	-5627
危	-5628
載	-5629
י	-5630
滿	-5631
哀	-5632
껀	-5633
坊	-5634
셩	-5635
獸	-5636
設	-5637
Я	-5638
믄	-5639
熙	-5640
Σ	-5641
慈	-5642
余	-5643
夷	-5644
操	-5645
冥	-5646
嵐	-5647
š	-5648
還	-5649
示	-5650
்	-5651
豪	-5652
쌉	-5653
尽	-5654
並	-5655
徒	-5656
害	-5657
豆	-5658
寝	-5659
盟	-5660
納	-5661
戶	-5662
浜	-5663
ô	-5664
尉	-5665
ğ	-5666
岳	-5667
薬	-5668
誘	-5669
└	-5670
透	-5671
閃	-5672
卷	-5673
征	-5674
牧	-5675
補	-5676
霧	-5677
係	-5678
욥	-5679
簡	-5680
춋	-5681
底	-5682
湯	-5683
э	-5684
圭	-5685
絹	-5686
頼	-5687
孔	-5688
♀	-5689
妙	-5690
銘	-5691
除	-5692
暮	-5693
뻬	-5694
腹	-5695
น	-5696
楚	-5697
幼	-5698
ح	-5699
淳	-5700
Δ	-5701
멓	-5702
兩	-5703
댜	-5704
츙	-5705
占	-5706
飲	-5707
銃	-5708
£	-5709
έ	-5710
콱	-5711
¥	-5712
됭	-5713
뤽	-5714
슉	-5715
掛	-5716
ŏ	-5717
郷	-5718
띨	-5719
魅	-5720
틔	-5721
윰	-5722
짹	-5723
│	-5724
庫	-5725
易	-5726
溶	-5727
綺	-5728
넜	-5729
χ	-5730
琴	-5731
祐	-5732
迎	-5733
嶺	-5734
歸	-5735
案	-5736
質	-5737
藥	-5738
쳉	-5739
枝	-5740
輔	-5741
恭	-5742
陀	-5743
굣	-5744
쌰	-5745
Л	-5746
折	-5747
쯧	-5748
ぅ	-5749
争	-5750
叉	-5751
쮸	-5752
両	-5753
啓	-5754
鐘	-5755
輩	-5756
冒	-5757
і	-5758
퍄	-5759
詞	-5760
젋	-5761
衝	-5762
♠	-5763
顯	-5764
ة	-5765
嬉	-5766
総	-5767
耶	-5768
醫	-5769
➡	-5770
뜷	-5771
接	-5772
栄	-5773
祥	-5774
資	-5775
談	-5776
卿	-5777
増	-5778
髪	-5779
넒	-5780
読	-5781
햏	-5782
휑	-5783
亮	-5784
宅	-5785
愚	-5786
飾	-5787
펐	-5788
姬	-5789
短	-5790
邦	-5791
墓	-5792
ã	-5793
짦	-5794
委	-5795
爾	-5796
맟	-5797
盤	-5798
援	-5799
閣	-5800
슾	-5801
卒	-5802
模	-5803
溪	-5804
鄕	-5805
盧	-5806
옭	-5807
ŋ	-5808
슼	-5809
各	-5810
灯	-5811
磨	-5812
≒	-5813
虫	-5814
邊	-5815
吐	-5816
З	-5817
倭	-5818
施	-5819
嚴	-5820
ë	-5821
写	-5822
昨	-5823
溫	-5824
ա	-5825
잴	-5826
割	-5827
油	-5828
訓	-5829
僧	-5830
聴	-5831
鷹	-5832
樓	-5833
証	-5834
्	-5835
战	-5836
焦	-5837
疾	-5838
窓	-5839
腕	-5840
뱁	-5841
隣	-5842
便	-5843
貫	-5844
遥	-5845
촙	-5846
眩	-5847
믐	-5848
唱	-5849
崩	-5850
嶋	-5851
곪	-5852
認	-5853
솎	-5854
↖	-5855
▒	-5856
ᅣ	-5857
課	-5858
藍	-5859
珍	-5860
♨	-5861
魯	-5862
被	-5863
챳	-5864
ě	-5865
▩	-5866
▽	-5867
召	-5868
杉	-5869
灣	-5870
停	-5871
推	-5872
糸	-5873
穴	-5874
猛	-5875
句	-5876
覺	-5877
幽	-5878
唯	-5879
展	-5880
礼	-5881
箱	-5882
썻	-5883
Λ	-5884
ᡝ	-5885
巴	-5886
晶	-5887
菊	-5888
査	-5889
綾	-5890
乳	-5891
阪	-5892
้	-5893
丙	-5894
握	-5895
爱	-5896
繰	-5897
र	-5898
狐	-5899
郭	-5900
隱	-5901
固	-5902
序	-5903
桂	-5904
볜	-5905
쨰	-5906
Ø	-5907
ش	-5908
率	-5909
錦	-5910
ø	-5911
齋	-5912
午	-5913
云	-5914
戒	-5915
羊	-5916
좡	-5917
ᡳ	-5918
規	-5919
芳	-5920
̶	-5921
❗	-5922
淑	-5923
澄	-5924
買	-5925
갗	-5926
뫄	-5927
ق	-5928
録	-5929
⭐	-5930
符	-5931
蝶	-5932
샙	-5933
廻	-5934
뽈	-5935
ł	-5936
ʃ	-5937
ك	-5938
虛	-5939
洲	-5940
署	-5941
策	-5942
唄	-5943
歳	-5944
點	-5945
롸	-5946
옻	-5947
幾	-5948
襲	-5949
莉	-5950
婦	-5951
彌	-5952
붇	-5953
兼	-5954
륄	-5955
祝	-5956
財	-5957
ヶ	-5958
験	-5959
碧	-5960
솅	-5961
桐	-5962
彈	-5963
雀	-5964
範	-5965
階	-5966
状	-5967
廳	-5968
絆	-5969
裁	-5970
虚	-5971
ו	-5972
単	-5973
執	-5974
ύ	-5975
伐	-5976
乘	-5977
屈	-5978
算	-5979
軽	-5980
อ	-5981
葬	-5982
냘	-5983
돡	-5984
뺴	-5985
〇	-5986
汗	-5987
洛	-5988
斷	-5989
뽁	-5990
་	-5991
株	-5992
텄	-5993
为	-5994
聯	-5995
莫	-5996
猿	-5997
碑	-5998
騒	-5999
犯	-6000
莊	-6001
旧	-6002
泳	-6003
譜	-6004
鬪	-6005
廟	-6006
扉	-6007
厚	-6008
엷	-6009
煌	-6010
곯	-6011
候	-6012
掴	-6013
舟	-6014
栗	-6015
汝	-6016
只	-6017
歲	-6018
皮	-6019
ف	-6020
鋼	-6021
駄	-6022
쩨	-6023
杯	-6024
浅	-6025
凶	-6026
悩	-6027
꼐	-6028
뼉	-6029
҉	-6030
«	-6031
綠	-6032
偶	-6033
棒	-6034
━	-6035
個	-6036
班	-6037
維	-6038
萌	-6039
잌	-6040
̷	-6041
敏	-6042
漫	-6043
靖	-6044
黎	-6045
솩	-6046
옇	-6047
屬	-6048
탸	-6049
ج	-6050
坪	-6051
煥	-6052
ɛ	-6053
磁	-6054
쨔	-6055
ก	-6056
岐	-6057
換	-6058
欠	-6059
å	-6060
͜	-6061
諦	-6062
寅	-6063
看	-6064
脚	-6065
겋	-6066
避	-6067
捕	-6068
抗	-6069
휜	-6070
往	-6071
涼	-6072
͘	-6073
帶	-6074
獻	-6075
∙	-6076
刊	-6077
層	-6078
휀	-6079
̧	-6080
針	-6081
̸	-6082
杏	-6083
軌	-6084
塞	-6085
宜	-6086
尼	-6087
恒	-6088
캑	-6089
ิ	-6090
朗	-6091
悠	-6092
◯	-6093
疲	-6094
峯	-6095
柔	-6096
逸	-6097
얜	-6098
ᅧ	-6099
敦	-6100
獅	-6101
拓	-6102
筋	-6103
닼	-6104
픠	-6105
灰	-6106
項	-6107
曜	-6108
潮	-6109
̴	-6110
゚	-6111
災	-6112
狩	-6113
招	-6114
凍	-6115
圓	-6116
龜	-6117
뉠	-6118
퉜	-6119
뎐	-6120
φ	-6121
値	-6122
孟	-6123
距	-6124
釋	-6125
흣	-6126
権	-6127
凡	-6128
婚	-6129
席	-6130
儒	-6131
č	-6132
薄	-6133
講	-6134
넹	-6135
藝	-6136
큔	-6137
恥	-6138
蒙	-6139
綱	-6140
̢	-6141
궨	-6142
ม	-6143
☞	-6144
吏	-6145
誇	-6146
̡	-6147
篇	-6148
謀	-6149
低	-6150
契	-6151
扶	-6152
寿	-6153
秒	-6154
퉈	-6155
遼	-6156
쫌	-6157
̀	-6158
̨	-6159
叔	-6160
困	-6161
狗	-6162
ф	-6163
淡	-6164
疑	-6165
砕	-6166
穂	-6167
奎	-6168
標	-6169
稱	-6170
驚	-6171
互	-6172
脳	-6173
겡	-6174
已	-6175
授	-6176
請	-6177
큅	-6178
핳	-6179
ั	-6180
挑	-6181
묽	-6182
ð	-6183
̛	-6184
粉	-6185
ǔ	-6186
ή	-6187
拉	-6188
檢	-6189
籍	-6190
앜	-6191
돠	-6192
翁	-6193
Е	-6194
揚	-6195
稲	-6196
蓋	-6197
賞	-6198
洙	-6199
玲	-6200
紗	-6201
̄	-6202
א	-6203
麟	-6204
昔	-6205
症	-6206
弁	-6207
뎬	-6208
̵	-6209
洗	-6210
閔	-6211
宏	-6212
卓	-6213
杜	-6214
햣	-6215
尚	-6216
潤	-6217
売	-6218
왐	-6219
Х	-6220
倍	-6221
假	-6222
咸	-6223
泥	-6224
韻	-6225
룀	-6226
쾡	-6227
͢	-6228
◦	-6229
机	-6230
笠	-6231
遣	-6232
쳅	-6233
췬	-6234
給	-6235
尺	-6236
禪	-6237
柏	-6238
雜	-6239
푀	-6240
ă	-6241
乎	-6242
沼	-6243
憂	-6244
桓	-6245
沖	-6246
เ	-6247
旨	-6248
曾	-6249
枯	-6250
汚	-6251
肩	-6252
亦	-6253
添	-6254
衡	-6255
챰	-6256
팃	-6257
Ф	-6258
鎖	-6259
慧	-6260
庵	-6261
͠	-6262
畵	-6263
쁩	-6264
醒	-6265
뭡	-6266
材	-6267
ć	-6268
щ	-6269
凛	-6270
均	-6271
宵	-6272
酸	-6273
巫	-6274
Ö	-6275
ъ	-6276
ᆷ	-6277
Α	-6278
充	-6279
腐	-6280
芸	-6281
⊙	-6282
晩	-6283
狀	-6284
脱	-6285
障	-6286
ง	-6287
勳	-6288
辿	-6289
닯	-6290
ɔ	-6291
ה	-6292
漆	-6293
츔	-6294
拾	-6295
곗	-6296
켁	-6297
뭥	-6298
쇽	-6299
螺	-6300
讀	-6301
潜	-6302
穆	-6303
芝	-6304
撮	-6305
맢	-6306
ᆺ	-6307
橘	-6308
爭	-6309
ѣ	-6310
ื	-6311
峴	-6312
┣	-6313
單	-6314
遅	-6315
风	-6316
ל	-6317
或	-6318
藩	-6319
鉉	-6320
ย	-6321
哉	-6322
恨	-6323
誕	-6324
證	-6325
宰	-6326
ᠨ	-6327
蟲	-6328
裝	-6329
靜	-6330
蔡	-6331
詰	-6332
这	-6333
鑑	-6334
东	-6335
柴	-6336
芽	-6337
訪	-6338
无	-6339
煙	-6340
塗	-6341
妄	-6342
勞	-6343
◀	-6344
緑	-6345
쌕	-6346
札	-6347
罰	-6348
Π	-6349
揮	-6350
迦	-6351
億	-6352
堀	-6353
淫	-6354
減	-6355
兎	-6356
慢	-6357
벞	-6358
炳	-6359
縛	-6360
討	-6361
伽	-6362
偽	-6363
楼	-6364
贊	-6365
鎬	-6366
ր	-6367
ز	-6368
継	-6369
般	-6370
幹	-6371
秉	-6372
絡	-6373
͟	-6374
屍	-6375
徹	-6376
盾	-6377
蜜	-6378
傘	-6379
燈	-6380
떫	-6381
ᄄ	-6382
跳	-6383
͝	-6384
埋	-6385
戯	-6386
矣	-6387
甫	-6388
誤	-6389
쳄	-6390
巳	-6391
廷	-6392
替	-6393
舌	-6394
允	-6395
勤	-6396
仏	-6397
倫	-6398
晋	-6399
殷	-6400
鍵	-6401
傑	-6402
謙	-6403
贈	-6404
誌	-6405
꽐	-6406
ר	-6407
憧	-6408
撫	-6409
ᄈ	-6410
脫	-6411
輕	-6412
î	-6413
楓	-6414
뚠	-6415
뷴	-6416
蹴	-6417
̕	-6418
幡	-6419
淨	-6420
篠	-6421
索	-6422
们	-6423
霞	-6424
ِ	-6425
❤	-6426
歴	-6427
璃	-6428
侵	-6429
ն	-6430
整	-6431
죌	-6432
┠	-6433
Æ	-6434
√	-6435
熟	-6436
築	-6437
訳	-6438
週	-6439
葵	-6440
融	-6441
벛	-6442
븅	-6443
免	-6444
貝	-6445
俗	-6446
刹	-6447
▨	-6448
⠀	-6449
喰	-6450
歷	-6451
꺅	-6452
¡	-6453
͞	-6454
时	-6455
أ	-6456
瑠	-6457
賜	-6458
홑	-6459
밎	-6460
懷	-6461
杖	-6462
收	-6463
盗	-6464
遂	-6465
‪	-6466
帯	-6467
紋	-6468
翰	-6469
Κ	-6470
癒	-6471
뢴	-6472
♦	-6473
蹟	-6474
ᄫ	-6475
퉤	-6476
偉	-6477
喪	-6478
襄	-6479
่	-6480
禍	-6481
嗚	-6482
宴	-6483
慣	-6484
擧	-6485
灼	-6486
땃	-6487
ა	-6488
翠	-6489
荷	-6490
祿	-6491
迫	-6492
밞	-6493
勿	-6494
医	-6495
堕	-6496
랸	-6497
ᄯ	-6498
焉	-6499
Э	-6500
斎	-6501
盡	-6502
쀼	-6503
燮	-6504
貨	-6505
適	-6506
陶	-6507
壺	-6508
捧	-6509
辭	-6510
續	-6511
塵	-6512
殊	-6513
묄	-6514
Ч	-6515
卜	-6516
鼻	-6517
‹	-6518
縁	-6519
›	-6520
專	-6521
脇	-6522
梦	-6523
扇	-6524
敷	-6525
架	-6526
삵	-6527
챵	-6528
審	-6529
籠	-6530
앍	-6531
‬	-6532
即	-6533
堅	-6534
網	-6535
錢	-6536
偵	-6537
칡	-6538
児	-6539
垣	-6540
硏	-6541
Ü	-6542
ว	-6543
갰	-6544
☠	-6545
謎	-6546
壇	-6547
卯	-6548
雑	-6549
묜	-6550
왱	-6551
肅	-6552
퐝	-6553
ʊ	-6554
מ	-6555
帥	-6556
哈	-6557
軒	-6558
鎮	-6559
ɕ	-6560
军	-6561
坤	-6562
締	-6563
त	-6564
स	-6565
▣	-6566
尋	-6567
乐	-6568
畑	-6569
価	-6570
努	-6571
糖	-6572
≠	-6573
动	-6574
个	-6575
壬	-6576
測	-6577
졋	-6578
ط	-6579
効	-6580
耐	-6581
桑	-6582
滝	-6583
轟	-6584
ɑ	-6585
⣿	-6586
仰	-6587
浴	-6588
酷	-6589
떽	-6590
خ	-6591
म	-6592
企	-6593
嘆	-6594
排	-6595
疏	-6596
ᡠ	-6597
嗣	-6598
昏	-6599
釜	-6600
鷄	-6601
暁	-6602
穿	-6603
큠	-6604
嬪	-6605
춉	-6606
弼	-6607
削	-6608
ɡ	-6609
ท	-6610
寬	-6611
慕	-6612
牌	-6613
阮	-6614
隅	-6615
帖	-6616
濡	-6617
裸	-6618
े	-6619
卑	-6620
否	-6621
朋	-6622
舜	-6623
뉵	-6624
▸	-6625
游	-6626
귯	-6627
焔	-6628
述	-6629
ი	-6630
丞	-6631
亥	-6632
属	-6633
爵	-6634
胞	-6635
脈	-6636
꿏	-6637
黙	-6638
눙	-6639
옉	-6640
ี	-6641
亨	-6642
昧	-6643
済	-6644
炭	-6645
紡	-6646
车	-6647
繼	-6648
▓	-6649
겍	-6650
흭	-6651
ล	-6652
欽	-6653
İ	-6654
ɯ	-6655
ʒ	-6656
殘	-6657
龙	-6658
︎	-6659
匠	-6660
苑	-6661
쒀	-6662
勉	-6663
狙	-6664
뎨	-6665
Ш	-6666
厳	-6667
寸	-6668
겄	-6669
삯	-6670
캰	-6671
͏	-6672
ᅴ	-6673
┼	-6674
쉑	-6675
큄	-6676
华	-6677
収	-6678
毅	-6679
賣	-6680
ᄡ	-6681
借	-6682
址	-6683
廉	-6684
‍	-6685
凰	-6686
劫	-6687
읜	-6688
헀	-6689
ŭ	-6690
⚭	-6691
✨	-6692
웻	-6693
儚	-6694
嫁	-6695
每	-6696
ո	-6697
亀	-6698
愼	-6699
蕭	-6700
퐈	-6701
傍	-6702
墳	-6703
弦	-6704
꺠	-6705
क	-6706
緊	-6707
謂	-6708
迅	-6709
쉭	-6710
兆	-6711
蜀	-6712
朔	-6713
責	-6714
輸	-6715
ʻ	-6716
ի	-6717
न	-6718
評	-6719
俠	-6720
勒	-6721
戀	-6722
遇	-6723
헙	-6724
ต	-6725
況	-6726
絲	-6727
鴻	-6728
怨	-6729
械	-6730
漁	-6731
濃	-6732
祠	-6733
ե	-6734
ぢ	-6735
懸	-6736
曼	-6737
ư	-6738
覆	-6739
겊	-6740
曺	-6741
禹	-6742
됴	-6743
ᅌ	-6744
壯	-6745
忌	-6746
껸	-6747
샜	-6748
憎	-6749
董	-6750
뼘	-6751
켑	-6752
த	-6753
仇	-6754
暖	-6755
徽	-6756
惟	-6757
旦	-6758
這	-6759
懐	-6760
聽	-6761
党	-6762
尸	-6763
렜	-6764
ि	-6765
赫	-6766
鼎	-6767
牟	-6768
獲	-6769
舎	-6770
袋	-6771
🌙	-6772
푯	-6773
ש	-6774
佑	-6775
叩	-6776
廢	-6777
旭	-6778
費	-6779
尔	-6780
庚	-6781
鬱	-6782
齒	-6783
줴	-6784
팹	-6785
ý	-6786
ᠣ	-6787
懿	-6788
歪	-6789
稅	-6790
笛	-6791
薇	-6792
酉	-6793
虞	-6794
蜂	-6795
貢	-6796
ص	-6797
丑	-6798
婆	-6799
앎	-6800
徵	-6801
豫	-6802
躍	-6803
铁	-6804
읭	-6805
ʔ	-6806
ி	-6807
曆	-6808
檀	-6809
遁	-6810
똬	-6811
퇘	-6812
ɐ	-6813
ْ	-6814
ى	-6815
叱	-6816
帳	-6817
柄	-6818
畿	-6819
詳	-6820
线	-6821
长	-6822
맆	-6823
옼	-6824
卽	-6825
橫	-6826
緣	-6827
촤	-6828
ώ	-6829
ת	-6830
逐	-6831
궃	-6832
푈	-6833
ב	-6834
க	-6835
却	-6836
垂	-6837
敢	-6838
棄	-6839
苗	-6840
ζ	-6841
瓦	-6842
ʌ	-6843
ะ	-6844
❓	-6845
戊	-6846
耀	-6847
邱	-6848
閑	-6849
含	-6850
壤	-6851
椿	-6852
溺	-6853
卍	-6854
帆	-6855
鎌	-6856
頬	-6857
읆	-6858
좔	-6859
홱	-6860
噛	-6861
駿	-6862
但	-6863
녈	-6864
哭	-6865
Ц	-6866
伴	-6867
弗	-6868
菓	-6869
켕	-6870
ค	-6871
ᅱ	-6872
拜	-6873
漏	-6874
箕	-6875
졍	-6876
従	-6877
褒	-6878
Ç	-6879
ी	-6880
广	-6881
泡	-6882
哥	-6883
浄	-6884
袖	-6885
ُ	-6886
昼	-6887
曇	-6888
樞	-6889
紹	-6890
Ё	-6891
棋	-6892
顧	-6893
깄	-6894
풉	-6895
헣	-6896
窮	-6897
ᆨ	-6898
唇	-6899
検	-6900
櫻	-6901
걘	-6902
य	-6903
賦	-6904
븀	-6905
ห	-6906
募	-6907
对	-6908
床	-6909
戈	-6910
歯	-6911
Đ	-6912
ᄭ	-6913
沒	-6914
璧	-6915
競	-6916
蔣	-6917
傅	-6918
团	-6919
뷘	-6920
複	-6921
豚	-6922
采	-6923
뷁	-6924
囲	-6925
拍	-6926
箭	-6927
閻	-6928
囚	-6929
ï	-6930
渚	-6931
肥	-6932
價	-6933
拔	-6934
过	-6935
額	-6936
飽	-6937
첬	-6938
Ε	-6939
ү	-6940
凪	-6941
訣	-6942
괵	-6943
Μ	-6944
ส	-6945
塩	-6946
톄	-6947
็	-6948
匂	-6949
圧	-6950
增	-6951
屯	-6952
霜	-6953
û	-6954
ᅬ	-6955
开	-6956
舰	-6957
靴	-6958
吧	-6959
戴	-6960
没	-6961
琉	-6962
筒	-6963
Á	-6964
ल	-6965
卡	-6966
盜	-6967
范	-6968
払	-6969
袁	-6970
묭	-6971
샾	-6972
胎	-6973
詠	-6974
😇	-6975
冊	-6976
默	-6977
똠	-6978
빱	-6979
퀜	-6980
햘	-6981
庄	-6982
耕	-6983
菅	-6984
萊	-6985
꾐	-6986
œ	-6987
ـ	-6988
抄	-6989
纏	-6990
尻	-6991
庶	-6992
枚	-6993
滑	-6994
门	-6995
鼠	-6996
慎	-6997
溝	-6998
关	-6999
奮	-7000
緋	-7001
薫	-7002
붸	-7003
傾	-7004
燒	-7005
졔	-7006
凸	-7007
巧	-7008
狭	-7009
ᡤ	-7010
卵	-7011
渋	-7012
व	-7013
ह	-7014
ᅠ	-7015
喚	-7016
淚	-7017
薔	-7018
讓	-7019
갹	-7020
쏨	-7021
償	-7022
掃	-7023
晃	-7024
猪	-7025
蒲	-7026
攝	-7027
辻	-7028
삔	-7029
厨	-7030
发	-7031
詔	-7032
ө	-7033
勘	-7034
毘	-7035
꽹	-7036
伍	-7037
帽	-7038
廊	-7039
梵	-7040
엊	-7041
ᠪ	-7042
穀	-7043
駒	-7044
ゐ	-7045
忽	-7046
損	-7047
譚	-7048
赦	-7049
Ж	-7050
匡	-7051
享	-7052
彰	-7053
ா	-7054
ᄠ	-7055
働	-7056
升	-7057
履	-7058
訴	-7059
酔	-7060
ّ	-7061
电	-7062
阳	-7063
ᅭ	-7064
彷	-7065
腰	-7066
说	-7067
斉	-7068
眉	-7069
肌	-7070
ᡵ	-7071
函	-7072
膳	-7073
鹽	-7074
ช	-7075
壱	-7076
廿	-7077
眺	-7078
硬	-7079
綿	-7080
섶	-7081
鍛	-7082
낍	-7083
ś	-7084
鎧	-7085
隙	-7086
늅	-7087
Š	-7088
昆	-7089
솀	-7090
徨	-7091
淮	-7092
젱	-7093
ヽ	-7094
场	-7095
奔	-7096
核	-7097
đ	-7098
什	-7099
戌	-7100
睦	-7101
醜	-7102
隨	-7103
弐	-7104
称	-7105
彭	-7106
慮	-7107
¶	-7108
催	-7109
貧	-7110
賭	-7111
ک	-7112
〃	-7113
乞	-7114
甚	-7115
簿	-7116
薙	-7117
諺	-7118
귐	-7119
횽	-7120
畫	-7121
睡	-7122
託	-7123
雫	-7124
⇔	-7125
Τ	-7126
嬢	-7127
张	-7128
賓	-7129
塾	-7130
採	-7131
粒	-7132
駐	-7133
찟	-7134
抑	-7135
畜	-7136
间	-7137
ด	-7138
⌀	-7139
凌	-7140
潰	-7141
註	-7142
譯	-7143
뵘	-7144
큽	-7145
ヅ	-7146
奧	-7147
怯	-7148
湾	-7149
繁	-7150
红	-7151
聚	-7152
语	-7153
斧	-7154
漠	-7155
ָ	-7156
専	-7157
液	-7158
ξ	-7159
且	-7160
媛	-7161
师	-7162
椎	-7163
魄	-7164
拒	-7165
虐	-7166
ᡥ	-7167
돚	-7168
̃	-7169
Ι	-7170
蝕	-7171
餓	-7172
प	-7173
媤	-7174
溜	-7175
ᠮ	-7176
営	-7177
屑	-7178
ṭ	-7179
◉	-7180
們	-7181
某	-7182
遷	-7183
兮	-7184
券	-7185
坡	-7186
骸	-7187
ע	-7188
旺	-7189
欅	-7190
祀	-7191
豹	-7192
鍋	-7193
쳔	-7194
บ	-7195
播	-7196
鄧	-7197
鞭	-7198
พ	-7199
濁	-7200
縄	-7201
罗	-7202
冶	-7203
曉	-7204
稷	-7205
臓	-7206
鍊	-7207
Ō	-7208
נ	-7209
釈	-7210
鳩	-7211
ד	-7212
碩	-7213
컁	-7214
큿	-7215
⋅	-7216
矛	-7217
胤	-7218
輿	-7219
ე	-7220
培	-7221
姑	-7222
̯	-7223
ป	-7224
股	-7225
壞	-7226
慰	-7227
歐	-7228
歓	-7229
險	-7230
髮	-7231
ń	-7232
ơ	-7233
尖	-7234
釣	-7235
ो	-7236
屠	-7237
燦	-7238
菱	-7239
队	-7240
캤	-7241
祚	-7242
遮	-7243
郁	-7244
쟀	-7245
把	-7246
쭙	-7247
ु	-7248
ᅨ	-7249
摠	-7250
效	-7251
磯	-7252
諭	-7253
ம	-7254
园	-7255
貸	-7256
겻	-7257
뒬	-7258
么	-7259
匹	-7260
朽	-7261
潭	-7262
Θ	-7263
ग	-7264
击	-7265
灘	-7266
醉	-7267
ப	-7268
渦	-7269
玩	-7270
豐	-7271
괸	-7272
먄	-7273
担	-7274
凉	-7275
惜	-7276
拙	-7277
梧	-7278
肖	-7279
茜	-7280
闕	-7281
飼	-7282
뤠	-7283
븨	-7284
횔	-7285
ἐ	-7286
兪	-7287
圍	-7288
惹	-7289
汽	-7290
稿	-7291
薛	-7292
雖	-7293
셤	-7294
툽	-7295
庸	-7296
憐	-7297
漂	-7298
马	-7299
ไ	-7300
堤	-7301
嶽	-7302
愁	-7303
隔	-7304
챱	-7305
偏	-7306
呑	-7307
庁	-7308
潛	-7309
虜	-7310
逝	-7311
需	-7312
▀	-7313
痴	-7314
馮	-7315
驅	-7316
좃	-7317
훍	-7318
勅	-7319
岛	-7320
廃	-7321
现	-7322
臭	-7323
Ú	-7324
姦	-7325
煉	-7326
Γ	-7327
朕	-7328
紺	-7329
经	-7330
댱	-7331
왘	-7332
壓	-7333
掘	-7334
湘	-7335
癸	-7336
碎	-7337
荊	-7338
隷	-7339
鷲	-7340
숌	-7341
흴	-7342
ர	-7343
ర	-7344
暑	-7345
筑	-7346
듸	-7347
땁	-7348
벱	-7349
웽	-7350
ž	-7351
ւ	-7352
ּ	-7353
จ	-7354
僞	-7355
级	-7356
툇	-7357
ज	-7358
斜	-7359
瓜	-7360
见	-7361
賈	-7362
ன	-7363
ு	-7364
拝	-7365
茉	-7366
譲	-7367
凱	-7368
讐	-7369
运	-7370
鉢	-7371
韋	-7372
鴨	-7373
卞	-7374
樣	-7375
猶	-7376
蠻	-7377
쟨	-7378
̞	-7379
ุ	-7380
宸	-7381
寛	-7382
戎	-7383
沃	-7384
錯	-7385
غ	-7386
滲	-7387
潔	-7388
爛	-7389
ɹ	-7390
胆	-7391
諫	-7392
≈	-7393
捜	-7394
腦	-7395
飮	-7396
촥	-7397
ᠯ	-7398
倶	-7399
圈	-7400
憑	-7401
씐	-7402
劣	-7403
头	-7404
炮	-7405
蕩	-7406
裵	-7407
賛	-7408
뵌	-7409
崖	-7410
巾	-7411
曖	-7412
潘	-7413
焰	-7414
爺	-7415
鄉	-7416
俱	-7417
汉	-7418
紛	-7419
辞	-7420
묏	-7421
ं	-7422
传	-7423
括	-7424
濱	-7425
臥	-7426
↻	-7427
斐	-7428
柚	-7429
稚	-7430
艶	-7431
辱	-7432
뀝	-7433
뾱	-7434
▄	-7435
儿	-7436
軟	-7437
◐	-7438
串	-7439
凝	-7440
叢	-7441
寫	-7442
朧	-7443
泊	-7444
甁	-7445
罠	-7446
舒	-7447
荘	-7448
Ş	-7449
ㄧ	-7450
粋	-7451
ʑ	-7452
些	-7453
凄	-7454
労	-7455
篤	-7456
퀠	-7457
튐	-7458
̈	-7459
Ν	-7460
儉	-7461
暇	-7462
遙	-7463
婁	-7464
患	-7465
預	-7466
̚	-7467
Ю	-7468
别	-7469
携	-7470
牡	-7471
痕	-7472
療	-7473
衍	-7474
霸	-7475
훵	-7476
ᠰ	-7477
禰	-7478
롈	-7479
喆	-7480
睿	-7481
弄	-7482
癖	-7483
縮	-7484
蒸	-7485
謹	-7486
밣	-7487
¿	-7488
ệ	-7489
☭	-7490
喉	-7491
妬	-7492
捷	-7493
控	-7494
汁	-7495
軸	-7496
鱗	-7497
쫘	-7498
🔞	-7499
ᆼ	-7500
弩	-7501
煩	-7502
綴	-7503
😊	-7504
菌	-7505
隼	-7506
홰	-7507
彬	-7508
既	-7509
栖	-7510
槌	-7511
票	-7512
艾	-7513
进	-7514
阜	-7515
솬	-7516
쒸	-7517
쨉	-7518
掲	-7519
緖	-7520
趣	-7521
믕	-7522
僉	-7523
她	-7524
忙	-7525
畏	-7526
秩	-7527
穢	-7528
翊	-7529
Χ	-7530
్	-7531
按	-7532
ế	-7533
稽	-7534
覽	-7535
记	-7536
鋭	-7537
휭	-7538
喧	-7539
堡	-7540
沌	-7541
磐	-7542
쒔	-7543
ல	-7544
ి	-7545
ὶ	-7546
准	-7547
厄	-7548
姐	-7549
幣	-7550
掻	-7551
摘	-7552
撰	-7553
柊	-7554
窟	-7555
荼	-7556
齡	-7557
쎌	-7558
ם	-7559
勸	-7560
很	-7561
陛	-7562
멬	-7563
├	-7564
賤	-7565
끅	-7566
ʼ	-7567
ạ	-7568
堯	-7569
榜	-7570
禧	-7571
禾	-7572
雛	-7573
싀	-7574
춈	-7575
亚	-7576
做	-7577
憤	-7578
뗌	-7579
슁	-7580
좍	-7581
픕	-7582
孩	-7583
渾	-7584
ຈ	-7585
ῦ	-7586
頓	-7587
ლ	-7588
凹	-7589
拘	-7590
艇	-7591
馳	-7592
읺	-7593
짼	-7594
آ	-7595
娜	-7596
楠	-7597
欺	-7598
湧	-7599
顕	-7600
鮫	-7601
麦	-7602
볘	-7603
卫	-7604
剥	-7605
寡	-7606
悦	-7607
읇	-7608
Ä	-7609
Ο	-7610
气	-7611
裡	-7612
貪	-7613
🎵	-7614
ę	-7615
̇	-7616
แ	-7617
托	-7618
駕	-7619
驪	-7620
늡	-7621
囁	-7622
壹	-7623
巣	-7624
幌	-7625
믓	-7626
퀭	-7627
💕	-7628
ս	-7629
إ	-7630
吟	-7631
臆	-7632
雍	-7633
騙	-7634
삡	-7635
冰	-7636
旣	-7637
爽	-7638
皐	-7639
糧	-7640
믜	-7641
뱐	-7642
핰	-7643
ㄨ	-7644
兜	-7645
嫡	-7646
揃	-7647
涯	-7648
褪	-7649
覧	-7650
跋	-7651
쩄	-7652
푄	-7653
ן	-7654
ᅪ	-7655
吼	-7656
堪	-7657
寇	-7658
棘	-7659
炸	-7660
յ	-7661
擬	-7662
瓶	-7663
ʁ	-7664
ְ	-7665
ᡩ	-7666
斑	-7667
濤	-7668
累	-7669
縫	-7670
蟹	-7671
请	-7672
辨	-7673
鎔	-7674
鷺	-7675
몯	-7676
组	-7677
蕾	-7678
캎	-7679
ἀ	-7680
宛	-7681
幅	-7682
歡	-7683
笹	-7684
聡	-7685
计	-7686
达	-7687
飞	-7688
듕	-7689
솦	-7690
ַ	-7691
滋	-7692
视	-7693
ᠩ	-7694
噂	-7695
彫	-7696
曽	-7697
肝	-7698
錬	-7699
گ	-7700
์	-7701
变	-7702
峙	-7703
牢	-7704
罡	-7705
茨	-7706
پ	-7707
☀	-7708
愉	-7709
摂	-7710
枕	-7711
皿	-7712
縱	-7713
鈍	-7714
麥	-7715
섥	-7716
挙	-7717
沿	-7718
让	-7719
﨑	-7720
რ	-7721
┃	-7722
义	-7723
婢	-7724
捉	-7725
諱	-7726
迪	-7727
麒	-7728
멨	-7729
Й	-7730
द	-7731
拭	-7732
撒	-7733
斤	-7734
暦	-7735
祇	-7736
蕃	-7737
远	-7738
邸	-7739
錆	-7740
랼	-7741
큣	-7742
Υ	-7743
喵	-7744
怜	-7745
鞍	-7746
ᄲ	-7747
∥	-7748
务	-7749
彡	-7750
琳	-7751
萩	-7752
蛛	-7753
룔	-7754
솨	-7755
ɾ	-7756
Β	-7757
ო	-7758
ῖ	-7759
丽	-7760
汰	-7761
渠	-7762
狄	-7763
穏	-7764
腸	-7765
蜃	-7766
該	-7767
웤	-7768
죵	-7769
퓔	-7770
栞	-7771
榊	-7772
爐	-7773
芦	-7774
郵	-7775
묫	-7776
찿	-7777
휨	-7778
单	-7779
县	-7780
禅	-7781
苏	-7782
设	-7783
还	-7784
녠	-7785
뱡	-7786
솽	-7787
қ	-7788
悅	-7789
沸	-7790
浸	-7791
衰	-7792
覗	-7793
雁	-7794
땟	-7795
Č	-7796
ɒ	-7797
ئ	-7798
傲	-7799
塊	-7800
奭	-7801
蓬	-7802
辟	-7803
ᆮ	-7804
冴	-7805
嘗	-7806
棟	-7807
禦	-7808
➔	-7809
您	-7810
棍	-7811
粟	-7812
鋒	-7813
閥	-7814
鯨	-7815
ח	-7816
ả	-7817
墜	-7818
款	-7819
涅	-7820
眷	-7821
遍	-7822
驗	-7823
륌	-7824
쏩	-7825
ɣ	-7826
ს	-7827
壮	-7828
妓	-7829
瑜	-7830
盆	-7831
禿	-7832
网	-7833
茅	-7834
즤	-7835
😈	-7836
ј	-7837
ా	-7838
〮	-7839
嵌	-7840
愍	-7841
术	-7842
藻	-7843
貌	-7844
閤	-7845
飢	-7846
됸	-7847
왝	-7848
🗨	-7849
כ	-7850
悼	-7851
灵	-7852
疆	-7853
蘆	-7854
鄒	-7855
훕	-7856
̪	-7857
ễ	-7858
゙	-7859
勁	-7860
媒	-7861
棺	-7862
沫	-7863
涉	-7864
煮	-7865
絃	-7866
终	-7867
蓄	-7868
随	-7869
魁	-7870
앏	-7871
쳬	-7872
췐	-7873
ச	-7874
僚	-7875
喬	-7876
缺	-7877
蒔	-7878
ř	-7879
ḥ	-7880
ộ	-7881
劑	-7882
宁	-7883
岬	-7884
殻	-7885
滴	-7886
盲	-7887
솁	-7888
ས	-7889
ᆸ	-7890
〒	-7891
ゝ	-7892
兰	-7893
并	-7894
漸	-7895
辯	-7896
遲	-7897
际	-7898
餅	-7899
া	-7900
业	-7901
从	-7902
喝	-7903
姚	-7904
擦	-7905
讚	-7906
輯	-7907
✲	-7908
哨	-7909
悉	-7910
扱	-7911
抵	-7912
拠	-7913
挫	-7914
牲	-7915
粘	-7916
繚	-7917
訶	-7918
낢	-7919
벧	-7920
ใ	-7921
垢	-7922
样	-7923
瑛	-7924
肢	-7925
賴	-7926
頌	-7927
낏	-7928
섐	-7929
옯	-7930
퓐	-7931
💀	-7932
ִ	-7933
僑	-7934
憩	-7935
択	-7936
蜘	-7937
訟	-7938
낟	-7939
륍	-7940
妾	-7941
循	-7942
惨	-7943
檜	-7944
璽	-7945
鏞	-7946
叡	-7947
护	-7948
玖	-7949
翻	-7950
膝	-7951
蛋	-7952
뉼	-7953
똔	-7954
峨	-7955
懲	-7956
糞	-7957
耽	-7958
膨	-7959
誉	-7960
隋	-7961
럇	-7962
ˊ	-7963
ὸ	-7964
嫉	-7965
报	-7966
旬	-7967
柿	-7968
芹	-7969
곂	-7970
ק	-7971
ந	-7972
栢	-7973
槃	-7974
淋	-7975
联	-7976
肇	-7977
謨	-7978
貰	-7979
賽	-7980
ą	-7981
̍	-7982
வ	-7983
员	-7984
总	-7985
戚	-7986
쨘	-7987
쭌	-7988
핡	-7989
헿	-7990
😆	-7991
ᅤ	-7992
劃	-7993
弔	-7994
晦	-7995
檻	-7996
欧	-7997
稀	-7998
脂	-7999
荀	-8000
겆	-8001
벋	-8002
쉥	-8003
튽	-8004
̓	-8005
刘	-8006
呉	-8007
檎	-8008
殖	-8009
薰	-8010
뽄	-8011
ż	-8012
ᆰ	-8013
吠	-8014
寵	-8015
據	-8016
芙	-8017
髙	-8018
Ó	-8019
ே	-8020
仔	-8021
塘	-8022
欣	-8023
績	-8024
缶	-8025
臼	-8026
豈	-8027
辦	-8028
릐	-8029
쬬	-8030
푱	-8031
훓	-8032
🔥	-8033
ᅰ	-8034
ᇝ	-8035
╋	-8036
疫	-8037
节	-8038
衙	-8039
誅	-8040
鞠	-8041
喫	-8042
实	-8043
寮	-8044
峻	-8045
聰	-8046
蓝	-8047
諡	-8048
讃	-8049
≡	-8050
丐	-8051
嬰	-8052
戟	-8053
拡	-8054
汪	-8055
煎	-8056
陈	-8057
餠	-8058
몐	-8059
삣	-8060
õ	-8061
մ	-8062
స	-8063
ị	-8064
♩	-8065
专	-8066
棲	-8067
瓊	-8068
絞	-8069
蝦	-8070
貳	-8071
þ	-8072
Ρ	-8073
ذ	-8074
ธ	-8075
ნ	-8076
緩	-8077
뻇	-8078
젹	-8079
쥠	-8080
폽	-8081
տ	-8082
埼	-8083
斥	-8084
溟	-8085
옘	-8086
퓽	-8087
פ	-8088
ố	-8089
咆	-8090
梓	-8091
殲	-8092
漬	-8093
燐	-8094
紳	-8095
辣	-8096
冗	-8097
垈	-8098
畢	-8099
蔚	-8100
횐	-8101
흫	-8102
✿	-8103
尤	-8104
柒	-8105
槻	-8106
鱼	-8107
뭅	-8108
셕	-8109
կ	-8110
ᅯ	-8111
ὐ	-8112
仍	-8113
厭	-8114
吗	-8115
呆	-8116
嘩	-8117
奸	-8118
披	-8119
樊	-8120
稼	-8121
粧	-8122
蛙	-8123
鴉	-8124
꿴	-8125
롹	-8126
뱟	-8127
쯩	-8128
ᠶ	-8129
剌	-8130
奚	-8131
孕	-8132
抹	-8133
🎶	-8134
བ	-8135
ヂ	-8136
励	-8137
旱	-8138
樋	-8139
灌	-8140
炯	-8141
蛍	-8142
긷	-8143
셱	-8144
̆	-8145
ட	-8146
ῶ	-8147
兀	-8148
惚	-8149
枪	-8150
渕	-8151
词	-8152
连	-8153
찣	-8154
춍	-8155
ӕ	-8156
俯	-8157
冲	-8158
幢	-8159
胴	-8160
阻	-8161
🏻	-8162
ய	-8163
ἰ	-8164
刈	-8165
啊	-8166
汐	-8167
沛	-8168
竝	-8169
耆	-8170
諾	-8171
謄	-8172
銭	-8173
뗑	-8174
भ	-8175
ᅙ	-8176
∴	-8177
听	-8178
哮	-8179
复	-8180
幷	-8181
彗	-8182
礎	-8183
禎	-8184
种	-8185
絢	-8186
醬	-8187
뙤	-8188
쨈	-8189
툿	-8190
ོ	-8191
ᠵ	-8192
怡	-8193
硝	-8194
袍	-8195
遵	-8196
郊	-8197
鐸	-8198
閭	-8199
쟘	-8200
̥	-8201
ض	-8202
剑	-8203
坦	-8204
塀	-8205
椅	-8206
蠱	-8207
陷	-8208
隻	-8209
雉	-8210
ᅟ	-8211
ᅫ	-8212
ṣ	-8213
寢	-8214
应	-8215
昊	-8216
杰	-8217
泗	-8218
满	-8219
穹	-8220
縦	-8221
胃	-8222
蛮	-8223
謳	-8224
꼇	-8225
낰	-8226
쬔	-8227
휄	-8228
ˋ	-8229
Η	-8230
ψ	-8231
្	-8232
ᠭ	-8233
娥	-8234
幇	-8235
昂	-8236
濬	-8237
罷	-8238
芒	-8239
边	-8240
냣	-8241
숩	-8242
쟛	-8243
핬	-8244
ข	-8245
凜	-8246
噴	-8247
备	-8248
拼	-8249
杓	-8250
梶	-8251
橙	-8252
珪	-8253
脅	-8254
脩	-8255
觸	-8256
騰	-8257
곬	-8258
뉨	-8259
맻	-8260
밷	-8261
앟	-8262
À	-8263
套	-8264
戮	-8265
戲	-8266
柯	-8267
湊	-8268
焚	-8269
甜	-8270
碁	-8271
维	-8272
葦	-8273
蠶	-8274
엪	-8275
ș	-8276
杵	-8277
櫓	-8278
渤	-8279
綏	-8280
结	-8281
裳	-8282
販	-8283
遭	-8284
줫	-8285
쵼	-8286
ג	-8287
ู	-8288
⌒	-8289
份	-8290
傀	-8291
冀	-8292
懺	-8293
沉	-8294
漕	-8295
釘	-8296
鲜	-8297
뗴	-8298
먕	-8299
빞	-8300
쨜	-8301
캼	-8302
🌏	-8303
⊂	-8304
两	-8305
晝	-8306
菲	-8307
🎉	-8308
ᆪ	-8309
ầ	-8310
✝	-8311
仟	-8312
弧	-8313
捌	-8314
炉	-8315
膽	-8316
薦	-8317
邯	-8318
飴	-8319
馴	-8320
鲁	-8321
꽌	-8322
Å	-8323
ĭ	-8324
ག	-8325
儲	-8326
敍	-8327
殴	-8328
浚	-8329
煞	-8330
矩	-8331
箋	-8332
舉	-8333
韩	-8334
鵬	-8335
債	-8336
圏	-8337
峡	-8338
怠	-8339
瀧	-8340
瞻	-8341
紐	-8342
给	-8343
訊	-8344
话	-8345
ˇ	-8346
匣	-8347
啦	-8348
獵	-8349
环	-8350
畠	-8351
瞼	-8352
禽	-8353
翅	-8354
脣	-8355
鉛	-8356
馨	-8357
궉	-8358
흝	-8359
兴	-8360
勃	-8361
叛	-8362
戱	-8363
批	-8364
榴	-8365
澳	-8366
麺	-8367
녓	-8368
쉠	-8369
틉	-8370
È	-8371
Í	-8372
ֹ	-8373
ء	-8374
ब	-8375
श	-8376
ⴰ	-8377
几	-8378
卦	-8379
崑	-8380
慾	-8381
搖	-8382
桥	-8383
渴	-8384
肆	-8385
荻	-8386
詐	-8387
飜	-8388
귿	-8389
Û	-8390
ै	-8391
佰	-8392
促	-8393
琪	-8394
瑟	-8395
膜	-8396
裴	-8397
谢	-8398
떈	-8399
큡	-8400
ס	-8401
屛	-8402
潟	-8403
粥	-8404
轻	-8405
鉤	-8406
银	-8407
陪	-8408
숔	-8409
왤	-8410
튭	-8411
ث	-8412
ు	-8413
挺	-8414
淀	-8415
渇	-8416
璋	-8417
璿	-8418
禄	-8419
銳	-8420
麵	-8421
앚	-8422
≧	-8423
▪	-8424
ヱ	-8425
据	-8426
析	-8427
棚	-8428
椒	-8429
殉	-8430
羨	-8431
肯	-8432
떙	-8433
쨀	-8434
ɨ	-8435
ʂ	-8436
མ	-8437
ゑ	-8438
习	-8439
崙	-8440
診	-8441
邵	-8442
隸	-8443
뙇	-8444
웟	-8445
న	-8446
༽	-8447
‰	-8448
佩	-8449
擇	-8450
渉	-8451
烟	-8452
粹	-8453
芬	-8454
蓉	-8455
蝉	-8456
蹄	-8457
ི	-8458
ვ	-8459
俄	-8460
喙	-8461
扈	-8462
杨	-8463
楞	-8464
瓚	-8465
租	-8466
臂	-8467
芋	-8468
赛	-8469
錠	-8470
욀	-8471
큇	-8472
©	-8473
ᄢ	-8474
丼	-8475
巢	-8476
撲	-8477
菴	-8478
裔	-8479
貯	-8480
餐	-8481
뎡	-8482
뼝	-8483
솃	-8484
ĝ	-8485
ɸ	-8486
ט	-8487
༼	-8488
်	-8489
ᇙ	-8490
រ	-8491
Ἀ	-8492
⚡	-8493
偃	-8494
勲	-8495
哪	-8496
挽	-8497
晟	-8498
槐	-8499
炊	-8500
牽	-8501
臟	-8502
遜	-8503
醐	-8504
솓	-8505
ấ	-8506
ờ	-8507
⬆	-8508
伎	-8509
僅	-8510
弹	-8511
汀	-8512
燁	-8513
竊	-8514
翡	-8515
苛	-8516
霖	-8517
봣	-8518
🇷	-8519
ɦ	-8520
̠	-8521
،	-8522
∑	-8523
♫	-8524
吃	-8525
徴	-8526
掠	-8527
旌	-8528
杭	-8529
毫	-8530
浙	-8531
渭	-8532
琥	-8533
葡	-8534
깸	-8535
뜹	-8536
ை	-8537
ᠢ	-8538
书	-8539
产	-8540
刷	-8541
弊	-8542
竟	-8543
繫	-8544
脆	-8545
醍	-8546
闊	-8547
雕	-8548
끠	-8549
땍	-8550
몌	-8551
̋	-8552
ㄩ	-8553
墟	-8554
嵩	-8555
搜	-8556
撞	-8557
沮	-8558
툐	-8559
ᡶ	-8560
⟫	-8561
厥	-8562
廠	-8563
泪	-8564
燭	-8565
离	-8566
絕	-8567
纂	-8568
羌	-8569
섄	-8570
큉	-8571
چ	-8572
ం	-8573
➜	-8574
乏	-8575
侠	-8576
喋	-8577
庾	-8578
晨	-8579
狸	-8580
皓	-8581
窯	-8582
筵	-8583
薪	-8584
諏	-8585
贖	-8586
鑛	-8587
鸞	-8588
쳥	-8589
퓬	-8590
햔	-8591
ད	-8592
ṇ	-8593
吻	-8594
揆	-8595
珀	-8596
纪	-8597
莱	-8598
蔭	-8599
薨	-8600
迹	-8601
頸	-8602
鬥	-8603
됫	-8604
뽜	-8605
쎘	-8606
촹	-8607
ར	-8608
₽	-8609
冨	-8610
搭	-8611
樫	-8612
湛	-8613
犠	-8614
猴	-8615
獎	-8616
繡	-8617
諒	-8618
맠	-8619
쪙	-8620
횻	-8621
̣	-8622
ֶ	-8623
ณ	-8624
ᠴ	-8625
⟪	-8626
呈	-8627
榛	-8628
炫	-8629
盈	-8630
碍	-8631
祁	-8632
貊	-8633
霹	-8634
鯉	-8635
긺	-8636
뭬	-8637
โ	-8638
ᡴ	-8639
ὁ	-8640
兔	-8641
冕	-8642
匿	-8643
圣	-8644
媚	-8645
廬	-8646
滄	-8647
裟	-8648
貓	-8649
貿	-8650
赴	-8651
陆	-8652
눞	-8653
좨	-8654
̌	-8655
च	-8656
ू	-8657
ર	-8658
უ	-8659
厲	-8660
猟	-8661
粗	-8662
뀽	-8663
劒	-8664
嘲	-8665
埃	-8666
怕	-8667
愿	-8668
戏	-8669
漣	-8670
燥	-8671
狛	-8672
茄	-8673
选	-8674
闪	-8675
섈	-8676
싴	-8677
ํ	-8678
囊	-8679
悌	-8680
扁	-8681
欢	-8682
琶	-8683
眾	-8684
祕	-8685
繩	-8686
霍	-8687
颯	-8688
鸡	-8689
펰	-8690
͋	-8691
լ	-8692
ద	-8693
◼	-8694
☜	-8695
匕	-8696
咎	-8697
撤	-8698
晚	-8699
献	-8700
痺	-8701
竿	-8702
芭	-8703
规	-8704
谁	-8705
閱	-8706
问	-8707
頁	-8708
騷	-8709
鶯	-8710
틍	-8711
팤	-8712
ƒ	-8713
ң	-8714
ṃ	-8715
⊃	-8716
┌	-8717
〆	-8718
标	-8719
滾	-8720
瀋	-8721
琵	-8722
祓	-8723
翳	-8724
艺	-8725
袈	-8726
试	-8727
邇	-8728
闢	-8729
陜	-8730
雌	-8731
麿	-8732
뢸	-8733
뵹	-8734
짫	-8735
̾	-8736
अ	-8737
喇	-8738
悶	-8739
熹	-8740
羲	-8741
芥	-8742
謁	-8743
謠	-8744
銓	-8745
閒	-8746
陟	-8747
雞	-8748
鶏	-8749
ា	-8750
✌	-8751
ヰ	-8752
呟	-8753
岑	-8754
澈	-8755
甄	-8756
癡	-8757
緯	-8758
肺	-8759
腫	-8760
荣	-8761
贄	-8762
镇	-8763
ᆳ	-8764
宀	-8765
宥	-8766
巷	-8767
曙	-8768
梟	-8769
樽	-8770
泛	-8771
澪	-8772
瑪	-8773
约	-8774
萄	-8775
跑	-8776
躇	-8777
躊	-8778
쳣	-8779
્	-8780
მ	-8781
▐	-8782
仗	-8783
勾	-8784
娃	-8785
截	-8786
熾	-8787
稔	-8788
艸	-8789
鑄	-8790
덬	-8791
츌	-8792
Ś	-8793
ɲ	-8794
ʕ	-8795
ध	-8796
ᠤ	-8797
ậ	-8798
⇨	-8799
✩	-8800
儡	-8801
匪	-8802
嘴	-8803
暢	-8804
桶	-8805
汎	-8806
淺	-8807
畳	-8808
瘡	-8809
綜	-8810
綬	-8811
膺	-8812
蔘	-8813
调	-8814
适	-8815
靂	-8816
쟉	-8817
쥿	-8818
햝	-8819
ɥ	-8820
ལ	-8821
ᡨ	-8822
∩	-8823
ㄥ	-8824
倚	-8825
奕	-8826
峠	-8827
掉	-8828
樺	-8829
菟	-8830
̒	-8831
ћ	-8832
ֵ	-8833
ბ	-8834
✦	-8835
幀	-8836
恢	-8837
慄	-8838
措	-8839
斌	-8840
杀	-8841
梯	-8842
稻	-8843
鎰	-8844
饌	-8845
뚯	-8846
ɢ	-8847
ན	-8848
寨	-8849
徊	-8850
怎	-8851
棕	-8852
瑾	-8853
酬	-8854
옜	-8855
읖	-8856
졀	-8857
夾	-8858
峽	-8859
巌	-8860
拿	-8861
棗	-8862
楷	-8863
猎	-8864
甸	-8865
窩	-8866
苔	-8867
袴	-8868
閼	-8869
頻	-8870
귁	-8871
꿘	-8872
놩	-8873
옾	-8874
웝	-8875
읗	-8876
Î	-8877
͌	-8878
Ζ	-8879
Ы	-8880
ྱ	-8881
თ	-8882
协	-8883
墮	-8884
巽	-8885
撥	-8886
暫	-8887
沐	-8888
甕	-8889
疎	-8890
硯	-8891
紘	-8892
纳	-8893
蟻	-8894
詮	-8895
賑	-8896
韶	-8897
龐	-8898
즁	-8899
켯	-8900
텻	-8901
👍	-8902
Ł	-8903
ț	-8904
ὰ	-8905
‡	-8906
↕	-8907
哦	-8908
奀	-8909
庆	-8910
欄	-8911
濯	-8912
琢	-8913
胄	-8914
舐	-8915
螢	-8916
譽	-8917
靡	-8918
갼	-8919
밐	-8920
섵	-8921
펏	-8922
ʿ	-8923
̽	-8924
ள	-8925
ུ	-8926
ῆ	-8927
✔	-8928
咬	-8929
坑	-8930
带	-8931
徘	-8932
揭	-8933
槿	-8934
檬	-8935
濕	-8936
箇	-8937
膏	-8938
趾	-8939
먐	-8940
믖	-8941
븝	-8942
짇	-8943
쿙	-8944
ʀ	-8945
ང	-8946
ᠬ	-8947
倡	-8948
啼	-8949
娑	-8950
娼	-8951
昕	-8952
杞	-8953
珊	-8954
產	-8955
祉	-8956
耿	-8957
踐	-8958
雰	-8959
饒	-8960
뇬	-8961
돝	-8962
랲	-8963
앝	-8964
읔	-8965
ण	-8966
图	-8967
姪	-8968
汶	-8969
濊	-8970
牒	-8971
蔑	-8972
껫	-8973
뚥	-8974
헠	-8975
వ	-8976
侮	-8977
凯	-8978
妮	-8979
帛	-8980
惣	-8981
拂	-8982
擁	-8983
楡	-8984
櫛	-8985
歎	-8986
秤	-8987
籌	-8988
腿	-8989
萨	-8990
끕	-8991
붜	-8992
Ā	-8993
ĉ	-8994
ő	-8995
̹	-8996
ુ	-8997
吊	-8998
圳	-8999
处	-9000
寓	-9001
彥	-9002
慟	-9003
搏	-9004
濫	-9005
礪	-9006
訥	-9007
誦	-9008
顚	-9009
飄	-9010
캿	-9011
ė	-9012
ˌ	-9013
ㄢ	-9014
惱	-9015
找	-9016
抽	-9017
拥	-9018
挨	-9019
暉	-9020
毁	-9021
毗	-9022
洸	-9023
窪	-9024
糾	-9025
蠍	-9026
转	-9027
霆	-9028
髓	-9029
슻	-9030
ז	-9031
▌	-9032
✕	-9033
丝	-9034
偷	-9035
呢	-9036
娱	-9037
愈	-9038
潢	-9039
瀛	-9040
犀	-9041
琦	-9042
簾	-9043
臧	-9044
藁	-9045
購	-9046
麼	-9047
읎	-9048
짯	-9049
¤	-9050
ғ	-9051
ք	-9052
ન	-9053
ோ	-9054
ญ	-9055
ắ	-9056
塑	-9057
擔	-9058
旁	-9059
概	-9060
筈	-9061
羞	-9062
膠	-9063
许	-9064
貼	-9065
遞	-9066
鵜	-9067
麪	-9068
흽	-9069
Þ	-9070
ŝ	-9071
͈	-9072
ї	-9073
ᆲ	-9074
ồ	-9075
◽	-9076
☎	-9077
奢	-9078
捲	-9079
晒	-9080
沁	-9081
碗	-9082
걼	-9083
땨	-9084
떰	-9085
씼	-9086
웋	-9087
졈	-9088
킅	-9089
క	-9090
ศ	-9091
∅	-9092
✡	-9093
伤	-9094
创	-9095
叙	-9096
咽	-9097
它	-9098
寐	-9099
拶	-9100
掩	-9101
查	-9102
榎	-9103
浿	-9104
篆	-9105
繪	-9106
誼	-9107
证	-9108
逮	-9109
龕	-9110
💦	-9111
צ	-9112
▦	-9113
厂	-9114
嗤	-9115
宫	-9116
导	-9117
斛	-9118
梗	-9119
槽	-9120
热	-9121
瑤	-9122
畓	-9123
睛	-9124
诗	-9125
辵	-9126
醋	-9127
鈿	-9128
鉱	-9129
鑿	-9130
领	-9131
黔	-9132
뺘	-9133
셒	-9134
썪	-9135
쳰	-9136
̅	-9137
Ψ	-9138
▧	-9139
咒	-9140
圃	-9141
嬌	-9142
崗	-9143
瀆	-9144
盒	-9145
税	-9146
胜	-9147
衫	-9148
觉	-9149
賁	-9150
轍	-9151
顎	-9152
馆	-9153
验	-9154
鮑	-9155
띡	-9156
퉷	-9157
핲	-9158
‚	-9159
ㄣ	-9160
侶	-9161
倂	-9162
兇	-9163
堰	-9164
恤	-9165
楯	-9166
瑚	-9167
矯	-9168
织	-9169
腺	-9170
跏	-9171
躬	-9172
軋	-9173
轄	-9174
믱	-9175
ň	-9176
ɰ	-9177
র	-9178
্	-9179
ᄧ	-9180
ề	-9181
〓	-9182
勵	-9183
惰	-9184
极	-9185
柵	-9186
毬	-9187
洒	-9188
狹	-9189
縋	-9190
莎	-9191
蕉	-9192
襟	-9193
閏	-9194
隴	-9195
餌	-9196
髏	-9197
鮎	-9198
쎼	-9199
🌸	-9200
̐	-9201
ە	-9202
ᠷ	-9203
偈	-9204
则	-9205
喩	-9206
妨	-9207
宦	-9208
晏	-9209
欒	-9210
漿	-9211
罵	-9212
翟	-9213
跪	-9214
軾	-9215
뒴	-9216
읒	-9217
툠	-9218
홓	-9219
훝	-9220
💖	-9221
͗	-9222
ә	-9223
վ	-9224
લ	-9225
ㄛ	-9226
吴	-9227
填	-9228
慌	-9229
澗	-9230
烹	-9231
稟	-9232
绝	-9233
鎚	-9234
飡	-9235
빋	-9236
뿝	-9237
쎔	-9238
엳	-9239
콯	-9240
휫	-9241
힣	-9242
̩	-9243
ظ	-9244
∫	-9245
屆	-9246
櫃	-9247
瀨	-9248
炒	-9249
癌	-9250
穎	-9251
粤	-9252
臘	-9253
舗	-9254
蚊	-9255
该	-9256
賃	-9257
难	-9258
雇	-9259
눝	-9260
쏼	-9261
Ž	-9262
հ	-9263
ἡ	-9264
┐	-9265
乭	-9266
叟	-9267
奶	-9268
宕	-9269
廓	-9270
恪	-9271
枠	-9272
牝	-9273
盖	-9274
营	-9275
贝	-9276
邁	-9277
鄙	-9278
酋	-9279
隈	-9280
髭	-9281
씅	-9282
ษ	-9283
≦	-9284
乂	-9285
剤	-9286
劾	-9287
彊	-9288
彪	-9289
捻	-9290
殯	-9291
滞	-9292
瀑	-9293
猷	-9294
疊	-9295
痲	-9296
祗	-9297
竺	-9298
简	-9299
腔	-9300
萱	-9301
酌	-9302
顏	-9303
늣	-9304
샄	-9305
풔	-9306
혠	-9307
˭	-9308
ց	-9309
భ	-9310
ల	-9311
འ	-9312
ᆔ	-9313
ᆱ	-9314
∧	-9315
┘	-9316
剩	-9317
剪	-9318
勧	-9319
囃	-9320
嬴	-9321
尿	-9322
柑	-9323
槪	-9324
氵	-9325
玆	-9326
砦	-9327
舘	-9328
钟	-9329
错	-9330
陝	-9331
隕	-9332
駝	-9333
鵲	-9334
깹	-9335
덪	-9336
떱	-9337
븜	-9338
쑬	-9339
̜	-9340
ў	-9341
ट	-9342
ᡡ	-9343
徙	-9344
挥	-9345
桔	-9346
毋	-9347
獐	-9348
竪	-9349
跨	-9350
꾿	-9351
맕	-9352
슙	-9353
쌨	-9354
푠	-9355
풂	-9356
̂	-9357
̟	-9358
ך	-9359
ष	-9360
ម	-9361
◕	-9362
嗎	-9363
堺	-9364
妈	-9365
庇	-9366
慘	-9367
檄	-9368
湿	-9369
滯	-9370
礙	-9371
禱	-9372
芮	-9373
衿	-9374
鈞	-9375
鞨	-9376
띱	-9377
챨	-9378
ɴ	-9379
͆	-9380
ন	-9381
ὴ	-9382
❍	-9383
⬇	-9384
俣	-9385
决	-9386
屏	-9387
忆	-9388
敖	-9389
泽	-9390
稜	-9391
繊	-9392
统	-9393
膚	-9394
葱	-9395
蔽	-9396
蛟	-9397
鈔	-9398
钢	-9399
锋	-9400
险	-9401
駱	-9402
곘	-9403
Ô	-9404
ਾ	-9405
ற	-9406
ọ	-9407
儘	-9408
呀	-9409
嗟	-9410
捐	-9411
擲	-9412
旻	-9413
涌	-9414
渓	-9415
练	-9416
蘊	-9417
螂	-9418
裨	-9419
鞫	-9420
녤	-9421
덞	-9422
듁	-9423
죈	-9424
튱	-9425
ા	-9426
ᠡ	-9427
ứ	-9428
„	-9429
⢀	-9430
优	-9431
兽	-9432
嵯	-9433
擒	-9434
畝	-9435
盞	-9436
艮	-9437
較	-9438
釗	-9439
뇸	-9440
늴	-9441
삷	-9442
읕	-9443
캪	-9444
컽	-9445
쿽	-9446
🐱	-9447
ɤ	-9448
Щ	-9449
आ	-9450
ᠸ	-9451
☺	-9452
丰	-9453
仄	-9454
侑	-9455
冑	-9456
壘	-9457
寞	-9458
懼	-9459
暎	-9460
曝	-9461
殆	-9462
盃	-9463
繕	-9464
繭	-9465
謡	-9466
跟	-9467
醴	-9468
頗	-9469
껨	-9470
눼	-9471
몪	-9472
쳘	-9473
🐍	-9474
̉	-9475
̼	-9476
թ	-9477
ண	-9478
◑	-9479
丕	-9480
乌	-9481
佇	-9482
傭	-9483
僖	-9484
划	-9485
匙	-9486
呵	-9487
昱	-9488
昴	-9489
梢	-9490
殼	-9491
湜	-9492
琰	-9493
甑	-9494
硫	-9495
竇	-9496
蔓	-9497
薮	-9498
虔	-9499
謬	-9500
輛	-9501
鞘	-9502
頷	-9503
鵝	-9504
꾜	-9505
똣	-9506
뚀	-9507
츼	-9508
̝	-9509
ܐ	-9510
ภ	-9511
ὲ	-9512
♒	-9513
⚠	-9514
乡	-9515
亲	-9516
偸	-9517
吽	-9518
唾	-9519
妥	-9520
姻	-9521
媽	-9522
寃	-9523
拷	-9524
斡	-9525
氐	-9526
沂	-9527
箚	-9528
贵	-9529
邢	-9530
靠	-9531
껜	-9532
벴	-9533
윱	-9534
🇰	-9535
͔	-9536
ͩ	-9537
గ	-9538
మ	-9539
◌	-9540
乖	-9541
倻	-9542
历	-9543
叭	-9544
咫	-9545
囗	-9546
奠	-9547
汾	-9548
沔	-9549
涵	-9550
甦	-9551
礫	-9552
苺	-9553
萃	-9554
质	-9555
軀	-9556
陁	-9557
靺	-9558
뿟	-9559
ͬ	-9560
ெ	-9561
᠋	-9562
ớ	-9563
ⵉ	-9564
凤	-9565
圆	-9566
夭	-9567
嶼	-9568
异	-9569
彳	-9570
恕	-9571
悳	-9572
挿	-9573
穩	-9574
笙	-9575
聘	-9576
薊	-9577
蟬	-9578
蠢	-9579
魎	-9580
鵠	-9581
齢	-9582
닠	-9583
닺	-9584
덷	-9585
몃	-9586
틑	-9587
ġ	-9588
ʈ	-9589
դ	-9590
ེ	-9591
დ	-9592
∽	-9593
众	-9594
儂	-9595
剋	-9596
剧	-9597
卐	-9598
埔	-9599
憾	-9600
执	-9601
楨	-9602
楸	-9603
殭	-9604
炙	-9605
烧	-9606
猩	-9607
罕	-9608
脊	-9609
藪	-9610
詣	-9611
詭	-9612
逼	-9613
뷕	-9614
얠	-9615
̎	-9616
ͧ	-9617
ব	-9618
ি	-9619
ာ	-9620
ἔ	-9621
ゞ	-9622
临	-9623
亢	-9624
咨	-9625
娛	-9626
彙	-9627
擾	-9628
敞	-9629
璜	-9630
穗	-9631
簫	-9632
舵	-9633
菖	-9634
赵	-9635
遗	-9636
闻	-9637
驕	-9638
꺵	-9639
꿸	-9640
뜽	-9641
볓	-9642
븡	-9643
쑴	-9644
쓔	-9645
ׁ	-9646
ে	-9647
ự	-9648
吕	-9649
喊	-9650
嗜	-9651
嘯	-9652
埴	-9653
斂	-9654
栽	-9655
淘	-9656
珉	-9657
珏	-9658
瘋	-9659
磬	-9660
粲	-9661
罔	-9662
胥	-9663
腑	-9664
艱	-9665
轨	-9666
鈷	-9667
걲	-9668
깉	-9669
뚧	-9670
쥑	-9671
쬘	-9672
쮜	-9673
츗	-9674
휸	-9675
ૂ	-9676
ผ	-9677
မ	-9678
⊿	-9679
⠉	-9680
ヮ	-9681
噓	-9682
垓	-9683
塼	-9684
岱	-9685
攫	-9686
暈	-9687
檸	-9688
溥	-9689
琮	-9690
畔	-9691
茸	-9692
薯	-9693
螳	-9694
訂	-9695
蹈	-9696
鄂	-9697
쎾	-9698
얶	-9699
퍅	-9700
¢	-9701
ũ	-9702
̙	-9703
շ	-9704
ड	-9705
ᇚ	-9706
ἄ	-9707
刚	-9708
咄	-9709
唸	-9710
奄	-9711
徑	-9712
戍	-9713
戾	-9714
挟	-9715
汲	-9716
烽	-9717
煽	-9718
珂	-9719
疋	-9720
药	-9721
衷	-9722
轮	-9723
餃	-9724
룁	-9725
욺	-9726
쫗	-9727
츕	-9728
캭	-9729
ʎ	-9730
̺	-9731
Ա	-9732
ղ	-9733
ਤ	-9734
ੁ	-9735
ἱ	-9736
❌	-9737
堆	-9738
塁	-9739
幫	-9740
掟	-9741
摯	-9742
构	-9743
棧	-9744
毓	-9745
漱	-9746
濂	-9747
燄	-9748
縺	-9749
耗	-9750
蝠	-9751
迄	-9752
郢	-9753
韜	-9754
頒	-9755
驍	-9756
괞	-9757
괼	-9758
맜	-9759
뱄	-9760
욍	-9761
졷	-9762
햤	-9763
Ê	-9764
ź	-9765
ਨ	-9766
ស	-9767
ợ	-9768
☣	-9769
⤴	-9770
伦	-9771
冉	-9772
劈	-9773
圜	-9774
墾	-9775
妳	-9776
姆	-9777
孰	-9778
嵋	-9779
恆	-9780
悖	-9781
慨	-9782
拐	-9783
曷	-9784
爸	-9785
玛	-9786
玻	-9787
祺	-9788
窒	-9789
竭	-9790
纖	-9791
茫	-9792
誣	-9793
誥	-9794
邾	-9795
闡	-9796
굥	-9797
꿧	-9798
넼	-9799
뵨	-9800
쐰	-9801
얔	-9802
Հ	-9803
ٍ	-9804
త	-9805
僭	-9806
兹	-9807
剝	-9808
剰	-9809
匈	-9810
卨	-9811
啖	-9812
啟	-9813
径	-9814
朵	-9815
树	-9816
槨	-9817
淇	-9818
烙	-9819
綸	-9820
腎	-9821
莖	-9822
躓	-9823
轢	-9824
迂	-9825
黜	-9826
삮	-9827
옃	-9828
읶	-9829
죔	-9830
춫	-9831
췍	-9832
̔	-9833
ܝ	-9834
ึ	-9835
།	-9836
გ	-9837
შ	-9838
ᄚ	-9839
⸻	-9840
俳	-9841
噌	-9842
岁	-9843
拱	-9844
掬	-9845
攸	-9846
樵	-9847
滉	-9848
璘	-9849
瘴	-9850
睨	-9851
礁	-9852
稍	-9853
縞	-9854
羹	-9855
逍	-9856
邕	-9857
閩	-9858
陞	-9859
頤	-9860
駙	-9861
髑	-9862
麓	-9863
黛	-9864
꺨	-9865
뎍	-9866
륫	-9867
봙	-9868
븟	-9869
솊	-9870
쏫	-9871
엙	-9872
컾	-9873
킄	-9874
킼	-9875
👀	-9876
🗡	-9877
Ē	-9878
ĩ	-9879
̤	-9880
Ξ	-9881
᠊	-9882
ḷ	-9883
ụ	-9884
ㄝ	-9885
倩	-9886
农	-9887
录	-9888
惇	-9889
攀	-9890
敲	-9891
瑩	-9892
瓢	-9893
笏	-9894
繆	-9895
莒	-9896
莽	-9897
蒂	-9898
蘿	-9899
虢	-9900
蛾	-9901
衞	-9902
詛	-9903
论	-9904
軫	-9905
郑	-9906
郝	-9907
鉞	-9908
陥	-9909
鞋	-9910
鳶	-9911
ꦶ	-9912
겝	-9913
귬	-9914
덖	-9915
봑	-9916
얆	-9917
욬	-9918
💙	-9919
Â	-9920
ʝ	-9921
ప	-9922
ន	-9923
⁝	-9924
ヾ	-9925
倣	-9926
兌	-9927
巍	-9928
弑	-9929
怀	-9930
揷	-9931
攘	-9932
晓	-9933
洽	-9934
疼	-9935
簪	-9936
芯	-9937
蝴	-9938
谍	-9939
貂	-9940
輦	-9941
逅	-9942
鍍	-9943
骑	-9944
鵺	-9945
띰	-9946
뺩	-9947
ů	-9948
͊	-9949
͒	-9950
պ	-9951
ٱ	-9952
ख	-9953
ீ	-9954
კ	-9955
ủ	-9956
◁	-9957
ㄏ	-9958
亘	-9959
坎	-9960
埜	-9961
墻	-9962
捺	-9963
昶	-9964
枷	-9965
歇	-9966
歹	-9967
爻	-9968
紂	-9969
紬	-9970
綻	-9971
舅	-9972
艹	-9973
菁	-9974
裙	-9975
裾	-9976
轅	-9977
鏑	-9978
颱	-9979
饭	-9980
魍	-9981
꼳	-9982
🐰	-9983
🕊	-9984
ȵ	-9985
є	-9986
Қ	-9987
գ	-9988
ု	-9989
ᆖ	-9990
ḍ	-9991
▫	-9992
丨	-9993
丿	-9994
夔	-9995
婉	-9996
幺	-9997
恶	-9998
抖	-9999
摺	-10000
棠	-10001
狡	-10002
矜	-10003
绿	-10004
腾	-10005
蕪	-10006
诺	-10007
资	-10008
踵	-10009
邂	-10010
鄴	-10011
錐	-10012
늒	-10013
뚭	-10014
뻉	-10015
쐴	-10016
엏	-10017
엤	-10018
탇	-10019
핧	-10020
🌟	-10021
💜	-10022
̬	-10023
़	-10024
♢	-10025
俵	-10026
啄	-10027
孙	-10028
摧	-10029
济	-10030
涇	-10031
滕	-10032
澹	-10033
碣	-10034
祜	-10035
苟	-10036
踪	-10037
顺	-10038
髄	-10039
鰲	-10040
뎊	-10041
쉣	-10042
쓩	-10043
앺	-10044
읻	-10045
콬	-10046
핱	-10047
흗	-10048
ɬ	-10049
ɵ	-10050
அ	-10051
உ	-10052
ฟ	-10053
ᆈ	-10054
ᠲ	-10055
ữ	-10056
☏	-10057
ㄟ	-10058
价	-10059
塢	-10060
姥	-10061
孚	-10062
孛	-10063
寻	-10064
幟	-10065
彝	-10066
懶	-10067
抛	-10068
拵	-10069
换	-10070
曄	-10071
曳	-10072
涛	-10073
潁	-10074
瀾	-10075
猜	-10076
珈	-10077
琅	-10078
瓷	-10079
箸	-10080
类	-10081
羯	-10082
肘	-10083
舶	-10084
莞	-10085
踰	-10086
输	-10087
鋪	-10088
錘	-10089
陋	-10090
鸟	-10091
맫	-10092
몀	-10093
봊	-10094
뺸	-10095
숛	-10096
읅	-10097
줜	-10098
칲	-10099
ʾ	-10100
̱	-10101
͑	-10102
इ	-10103
剖	-10104
彤	-10105
攴	-10106
朶	-10107
桀	-10108
煬	-10109
疇	-10110
矮	-10111
聊	-10112
聾	-10113
认	-10114
豕	-10115
霽	-10116
饅	-10117
鹵	-10118
ꦤ	-10119
넗	-10120
넢	-10121
롼	-10122
묾	-10123
뭏	-10124
🎀	-10125
ɜ	-10126
ʐ	-10127
̏	-10128
ͥ	-10129
І	-10130
բ	-10131
ত	-10132
ྲ	-10133
ᆜ	-10134
ὺ	-10135
⬜	-10136
亻	-10137
儺	-10138
妊	-10139
寔	-10140
廚	-10141
洩	-10142
燎	-10143
琛	-10144
瑕	-10145
璟	-10146
瓣	-10147
緞	-10148
藉	-10149
虽	-10150
蟠	-10151
观	-10152
邀	-10153
鄲	-10154
闔	-10155
隹	-10156
駁	-10157
곈	-10158
냡	-10159
밬	-10160
섦	-10161
웦	-10162
챡	-10163
쳑	-10164
캌	-10165
̑	-10166
̿	-10167
ۇ	-10168
ँ	-10169
హ	-10170
ხ	-10171
ᅘ	-10172
ᆢ	-10173
ᇇ	-10174
ể	-10175
ἶ	-10176
Ἰ	-10177
ㄜ	-10178
吒	-10179
坚	-10180
昻	-10181
洁	-10182
濠	-10183
燻	-10184
燼	-10185
粮	-10186
糊	-10187
苞	-10188
苻	-10189
菫	-10190
蜻	-10191
蟾	-10192
遐	-10193
鋸	-10194
雹	-10195
饗	-10196
걜	-10197
녑	-10198
뉩	-10199
뜌	-10200
룅	-10201
믾	-10202
뱍	-10203
앖	-10204
좐	-10205
쵤	-10206
͉	-10207
͛	-10208
ম	-10209
‒	-10210
併	-10211
厦	-10212
另	-10213
姸	-10214
娟	-10215
弃	-10216
弋	-10217
挾	-10218
权	-10219
楔	-10220
汤	-10221
瓏	-10222
稗	-10223
艘	-10224
袂	-10225
逞	-10226
鍼	-10227
霄	-10228
鴎	-10229
꧀	-10230
걋	-10231
곌	-10232
넖	-10233
뜁	-10234
랔	-10235
뱛	-10236
켬	-10237
틩	-10238
🇺	-10239
ħ	-10240
Ī	-10241
ţ	-10242
ǚ	-10243
͇	-10244
͐	-10245
ক	-10246
ძ	-10247
➝	-10248
ㄒ	-10249
侃	-10250
娶	-10251
态	-10252
憬	-10253
拗	-10254
柩	-10255
樑	-10256
殃	-10257
沪	-10258
瀟	-10259
瞑	-10260
籤	-10261
糕	-10262
綫	-10263
肪	-10264
薑	-10265
蛤	-10266
蛭	-10267
覓	-10268
諧	-10269
酈	-10270
酎	-10271
酢	-10272
閨	-10273
馥	-10274
鴇	-10275
鷗	-10276
뷧	-10277
욌	-10278
쵹	-10279
픅	-10280
🌐	-10281
😂	-10282
͕	-10283
இ	-10284
ூ	-10285
ᆬ	-10286
ᠳ	-10287
ṅ	-10288
⁠	-10289
∨	-10290
♚	-10291
➫	-10292
ㄌ	-10293
倪	-10294
卻	-10295
围	-10296
奬	-10297
孺	-10298
嶠	-10299
愧	-10300
浣	-10301
炅	-10302
琲	-10303
砥	-10304
箔	-10305
继	-10306
续	-10307
翌	-10308
肱	-10309
蝙	-10310
誡	-10311
豬	-10312
趨	-10313
醇	-10314
鏖	-10315
预	-10316
频	-10317
题	-10318
颜	-10319
鶻	-10320
黍	-10321
몿	-10322
삠	-10323
쒜	-10324
읷	-10325
쟐	-10326
캴	-10327
켚	-10328
킈	-10329
💧	-10330
💲	-10331
😍	-10332
Ə	-10333
̮	-10334
ͫ	-10335
थ	-10336
ྒ	-10337
ᅗ	-10338
ᠦ	-10339
ṉ	-10340
∆	-10341
❔	-10342
丶	-10343
僻	-10344
凋	-10345
咖	-10346
响	-10347
廖	-10348
愷	-10349
柘	-10350
泄	-10351
爬	-10352
牘	-10353
珥	-10354
皖	-10355
碼	-10356
磊	-10357
祟	-10358
纯	-10359
苹	-10360
蛉	-10361
褥	-10362
詢	-10363
讯	-10364
谿	-10365
貶	-10366
鞏	-10367
鯖	-10368
鰐	-10369
齧	-10370
끎	-10371
녯	-10372
덯	-10373
쉅	-10374
쌥	-10375
잆	-10376
💚	-10377
Ñ	-10378
̫	-10379
͖	-10380
Ь	-10381
۰	-10382
ܢ	-10383
ল	-10384
ถ	-10385
က	-10386
ჩ	-10387
ត	-10388
∘	-10389
┴	-10390
❶	-10391
⟩	-10392
ㄡ	-10393
伺	-10394
偕	-10395
掖	-10396
搾	-10397
擴	-10398
攷	-10399
枳	-10400
椋	-10401
湌	-10402
猾	-10403
疯	-10404
瞞	-10405
笔	-10406
縷	-10407
职	-10408
茲	-10409
蔦	-10410
袞	-10411
贏	-10412
蹂	-10413
躰	-10414
酵	-10415
锦	-10416
髥	-10417
鬘	-10418
鴛	-10419
뙈	-10420
륑	-10421
뮻	-10422
븍	-10423
쏸	-10424
얐	-10425
햑	-10426
ɭ	-10427
̖	-10428
̳	-10429
͍	-10430
ͨ	-10431
ͪ	-10432
҈	-10433
फ	-10434
ట	-10435
ት	-10436
ក	-10437
ជ	-10438
⟨	-10439
⬅	-10440
ㄚ	-10441
伟	-10442
值	-10443
冤	-10444
厶	-10445
喀	-10446
埠	-10447
够	-10448
悴	-10449
抉	-10450
掾	-10451
敌	-10452
曠	-10453
熔	-10454
穣	-10455
络	-10456
羈	-10457
聶	-10458
蒜	-10459
諮	-10460
识	-10461
銜	-10462
鐙	-10463
钱	-10464
鬚	-10465
鹰	-10466
麾	-10467
龔	-10468
뒨	-10469
룐	-10470
솰	-10471
썡	-10472
쎅	-10473
엶	-10474
읫	-10475
쯋	-10476
͚	-10477
Ά	-10478
Έ	-10479
ծ	-10480
પ	-10481
း	-10482
❄	-10483
ㄠ	-10484
俸	-10485
埒	-10486
惊	-10487
户	-10488
摸	-10489
澱	-10490
煜	-10491
瑀	-10492
璇	-10493
璞	-10494
瞿	-10495
穫	-10496
粵	-10497
编	-10498
翎	-10499
膣	-10500
萎	-10501
衢	-10502
詫	-10503
詹	-10504
酱	-10505
鏢	-10506
镜	-10507
驱	-10508
鴦	-10509
齐	-10510
엃	-10511
칯	-10512
🙏	-10513
🥺	-10514
எ	-10515
ధ	-10516
င	-10517
ប	-10518
ỉ	-10519
ὑ	-10520
⠁	-10521
ㄕ	-10522
ㄙ	-10523
伶	-10524
哎	-10525
塡	-10526
娅	-10527
孼	-10528
恂	-10529
择	-10530
楢	-10531
泓	-10532
潼	-10533
灑	-10534
燧	-10535
珣	-10536
碇	-10537
觴	-10538
詵	-10539
諜	-10540
譬	-10541
诸	-10542
豸	-10543
贅	-10544
赢	-10545
辉	-10546
釉	-10547
釧	-10548
鑽	-10549
隐	-10550
魑	-10551
ꦸ	-10552
꾄	-10553
뉸	-10554
룟	-10555
쎠	-10556
쐇	-10557
좝	-10558
쩬	-10559
쭁	-10560
톼	-10561
푝	-10562
퓩	-10563
🐶	-10564
🦇	-10565
Ʒ	-10566
ʟ	-10567
̲	-10568
ұ	-10569
Ө	-10570
ฉ	-10571
๑	-10572
န	-10573
ᆭ	-10574
兢	-10575
冢	-10576
刪	-10577
啞	-10578
啤	-10579
奨	-10580
姊	-10581
娇	-10582
搬	-10583
枢	-10584
槎	-10585
燾	-10586
牆	-10587
犧	-10588
疹	-10589
码	-10590
竈	-10591
箏	-10592
紇	-10593
紧	-10594
緝	-10595
聿	-10596
萇	-10597
蟇	-10598
败	-10599
辜	-10600
迸	-10601
逵	-10602
酪	-10603
霓	-10604
餡	-10605
鹅	-10606
麽	-10607
ꦲ	-10608
굄	-10609
늗	-10610
듧	-10611
딮	-10612
숮	-10613
햎	-10614
🎤	-10615
🐯	-10616
ǽ	-10617
।	-10618
ਰ	-10619
ေ	-10620
ᅇ	-10621
ỳ	-10622
ὅ	-10623
ᾶ	-10624
ῷ	-10625
∃	-10626
▤	-10627
◊	-10628
⦁	-10629
ㄓ	-10630
严	-10631
儼	-10632
办	-10633
启	-10634
唆	-10635
坏	-10636
垠	-10637
夙	-10638
娠	-10639
忻	-10640
歆	-10641
沆	-10642
瀉	-10643
祢	-10644
粕	-10645
绍	-10646
蔥	-10647
覲	-10648
訖	-10649
譙	-10650
讎	-10651
训	-10652
责	-10653
邏	-10654
釐	-10655
釵	-10656
鉾	-10657
鋏	-10658
錮	-10659
鑒	-10660
곷	-10661
귑	-10662
긤	-10663
뚬	-10664
뺭	-10665
쌐	-10666
엨	-10667
옝	-10668
죙	-10669
촵	-10670
𠮷	-10671
Ż	-10672
ɫ	-10673
̗	-10674
̰	-10675
ਕ	-10676
ય	-10677
સ	-10678
ழ	-10679
ქ	-10680
᛫	-10681
ង	-10682
ព	-10683
ổ	-10684
╹	-10685
✧	-10686
勋	-10687
厅	-10688
喘	-10689
壻	-10690
夂	-10691
彎	-10692
懇	-10693
懋	-10694
攪	-10695
敕	-10696
杻	-10697
桟	-10698
沽	-10699
洵	-10700
瑰	-10701
璣	-10702
瘟	-10703
稙	-10704
芻	-10705
褐	-10706
鏤	-10707
騨	-10708
驥	-10709
겯	-10710
돐	-10711
릍	-10712
먈	-10713
뺙	-10714
뺵	-10715
쑻	-10716
앋	-10717
왇	-10718
읃	-10719
짋	-10720
👤	-10721
👨	-10722
Ј	-10723
զ	-10724
ܘ	-10725
গ	-10726
ฐ	-10727
ን	-10728
⇄	-10729
┓	-10730
⠕	-10731
亠	-10732
佗	-10733
咱	-10734
啡	-10735
婷	-10736
婿	-10737
憫	-10738
拏	-10739
栃	-10740
毀	-10741
氾	-10742
淹	-10743
滨	-10744
濮	-10745
炁	-10746
爰	-10747
砧	-10748
穰	-10749
篭	-10750
絳	-10751
繍	-10752
羣	-10753
莘	-10754
萍	-10755
藿	-10756
蠟	-10757
襖	-10758
誨	-10759
辶	-10760
遡	-10761
鄰	-10762
陌	-10763
霰	-10764
髻	-10765
ꦁ	-10766
궆	-10767
뇩	-10768
벜	-10769
싿	-10770
잍	-10771
죡	-10772
쯥	-10773
퇀	-10774
훽	-10775
👑	-10776
😎	-10777
🚫	-10778
ĕ	-10779
ϊ	-10780
ે	-10781
ங	-10782
ซ	-10783
າ	-10784
པ	-10785
ြ	-10786
‿	-10787
₤	-10788
┤	-10789
✈	-10790
ㄇ	-10791
俟	-10792
冫	-10793
咀	-10794
唤	-10795
嘟	-10796
屹	-10797
归	-10798
渺	-10799
爀	-10800
猥	-10801
痘	-10802
碓	-10803
篋	-10804
粛	-10805
糠	-10806
脉	-10807
臉	-10808
舛	-10809
茵	-10810
茹	-10811
蓼	-10812
蛸	-10813
蜥	-10814
蝸	-10815
袭	-10816
贴	-10817
躁	-10818
逗	-10819
醤	-10820
銖	-10821
鞄	-10822
駟	-10823
ꦠ	-10824
밦	-10825
뵀	-10826
뼤	-10827
뽝	-10828
쟎	-10829
쾀	-10830
탶	-10831
퐄	-10832
👩	-10833
📺	-10834
😜	-10835
ǫ	-10836
ͭ	-10837
Ս	-10838
ռ	-10839
য	-10840
ગ	-10841
ტ	-10842
ᆴ	-10843
ṛ	-10844
ừ	-10845
❷	-10846
乍	-10847
儁	-10848
哩	-10849
库	-10850
廈	-10851
彛	-10852
彧	-10853
擎	-10854
杠	-10855
柾	-10856
漲	-10857
爷	-10858
玫	-10859
玹	-10860
瑗	-10861
璉	-10862
眸	-10863
睺	-10864
碌	-10865
笞	-10866
筠	-10867
脾	-10868
苫	-10869
荆	-10870
蔬	-10871
蝗	-10872
财	-10873
躙	-10874
輜	-10875
载	-10876
邨	-10877
醢	-10878
鎗	-10879
锅	-10880
雯	-10881
頰	-10882
顥	-10883
饕	-10884
饰	-10885
驢	-10886
驤	-10887
덛	-10888
밪	-10889
붏	-10890
얉	-10891
얾	-10892
읠	-10893
졉	-10894
죳	-10895
쳌	-10896
퇸	-10897
헸	-10898
🏠	-10899
💎	-10900
ÿ	-10901
ͅ	-10902
͎	-10903
Մ	-10904
ু	-10905
ખ	-10906
య	-10907
ై	-10908
ᆵ	-10909
┏	-10910
✙	-10911
⠛	-10912
乓	-10913
侘	-10914
厘	-10915
嗅	-10916
嘛	-10917
噲	-10918
囧	-10919
埈	-10920
帮	-10921
恬	-10922
拌	-10923
棉	-10924
测	-10925
涿	-10926
淄	-10927
瑋	-10928
疒	-10929
疵	-10930
祸	-10931
穡	-10932
窗	-10933
聳	-10934
肋	-10935
胖	-10936
获	-10937
薗	-10938
蝋	-10939
蝎	-10940
议	-10941
踢	-10942
软	-10943
邉	-10944
錨	-10945
閲	-10946
闍	-10947
顶	-10948
ꦏ	-10949
귱	-10950
됏	-10951
땽	-10952
멉	-10953
븥	-10954
솧	-10955
쑝	-10956
텰	-10957
🎂	-10958
🎬	-10959
😭	-10960
🦋	-10961
ɻ	-10962
ʏ	-10963
̻	-10964
է	-10965
ף	-10966
Ἐ	-10967
⣷	-10968
ㄍ	-10969
兗	-10970
嚮	-10971
廛	-10972
惺	-10973
懂	-10974
摇	-10975
撓	-10976
暹	-10977
枉	-10978
柠	-10979
椰	-10980
涪	-10981
渝	-10982
湍	-10983
籬	-10984
葫	-10985
蛆	-10986
蟒	-10987
訛	-10988
誾	-10989
賂	-10990
负	-10991
酥	-10992
阴	-10993
雾	-10994
靭	-10995
鞅	-10996
鮭	-10997
鼬	-10998
갞	-10999
긇	-11000
깩	-11001
냤	-11002
뷀	-11003
빝	-11004
뻰	-11005
셥	-11006
씡	-11007
쩰	-11008
쯕	-11009
췃	-11010
캢	-11011
톺	-11012
픙	-11013
Ū	-11014
ʋ	-11015
ͣ	-11016
ृ	-11017
জ	-11018
ే	-11019
ိ	-11020
ᇧ	-11021
គ	-11022
∇	-11023
ⵔ	-11024
⸝	-11025
〯	-11026
ㄉ	-11027
ㄐ	-11028
ㄗ	-11029
乒	-11030
侦	-11031
倦	-11032
冂	-11033
况	-11034
凵	-11035
刮	-11036
势	-11037
卉	-11038
哺	-11039
噫	-11040
堵	-11041
屎	-11042
恰	-11043
晷	-11044
樱	-11045
櫟	-11046
滸	-11047
澎	-11048
濾	-11049
灭	-11050
璐	-11051
疗	-11052
瘦	-11053
瞰	-11054
禊	-11055
篝	-11056
粱	-11057
綽	-11058
繹	-11059
脑	-11060
脸	-11061
膾	-11062
萤	-11063
蒯	-11064
躯	-11065
辽	-11066
邈	-11067
鍮	-11068
隗	-11069
顾	-11070
鯛	-11071
麤	-11072
굷	-11073
넀	-11074
뎜	-11075
뫃	-11076
쁑	-11077
싈	-11078
왬	-11079
욹	-11080
욿	-11081
읋	-11082
졘	-11083
죨	-11084
쥭	-11085
챦	-11086
췰	-11087
퀫	-11088
텬	-11089
🅱	-11090
🌊	-11091
ɟ	-11092
ͯ	-11093
দ	-11094
ਦ	-11095
ᆶ	-11096
ያ	-11097
ử	-11098
∠	-11099
┛	-11100
⚥	-11101
〖	-11102
〗	-11103
゠	-11104
ㄎ	-11105
ㄑ	-11106
ㄖ	-11107
ㄞ	-11108
刁	-11109
嚇	-11110
庠	-11111
悍	-11112
愾	-11113
扎	-11114
拯	-11115
揖	-11116
曦	-11117
杆	-11118
桁	-11119
橿	-11120
沓	-11121
澁	-11122
灸	-11123
炤	-11124
瓘	-11125
竄	-11126
笥	-11127
繧	-11128
莲	-11129
蜴	-11130
譴	-11131
醸	-11132
鉅	-11133
鋤	-11134
隍	-11135
雩	-11136
顿	-11137
餉	-11138
餮	-11139
驃	-11140
麴	-11141
黥	-11142
갂	-11143
뇐	-11144
댠	-11145
둟	-11146
뚸	-11147
멂	-11148
뱔	-11149
뻡	-11150
쌋	-11151
쥼	-11152
쳡	-11153
핓	-11154
햡	-11155
휏	-11156
Ð	-11157
ĵ	-11158
ʉ	-11159
ʖ	-11160
͓	-11161
ͤ	-11162
ͮ	-11163
ہ	-11164
۱	-11165
ܠ	-11166
ः	-11167
વ	-11168
ἑ	-11169
☢	-11170
♿	-11171
〝	-11172
ヵ	-11173
俔	-11174
刂	-11175
卅	-11176
嚼	-11177
宓	-11178
屁	-11179
废	-11180
忿	-11181
拆	-11182
捏	-11183
擅	-11184
樟	-11185
毆	-11186
氓	-11187
渊	-11188
焱	-11189
琿	-11190
瑣	-11191
瞭	-11192
碟	-11193
筍	-11194
箒	-11195
糟	-11196
纸	-11197
缘	-11198
罐	-11199
蚩	-11200
訃	-11201
賄	-11202
賠	-11203
輒	-11204
邛	-11205
釁	-11206
鑼	-11207
铃	-11208
锁	-11209
锡	-11210
阵	-11211
頹	-11212
馭	-11213
骷	-11214
鴆	-11215
龟	-11216
닞	-11217
덨	-11218
롷	-11219
뺍	-11220
뻴	-11221
쀍	-11222
쌜	-11223
쫏	-11224
핟	-11225
혤	-11226
🏃	-11227
👻	-11228
🚨	-11229
̘	-11230
؟	-11231
ٰ	-11232
ܡ	-11233
उ	-11234
হ	-11235
ત	-11236
တ	-11237
ღ	-11238
ỏ	-11239
ἴ	-11240
∪	-11241
⬛	-11242
䜌	-11243
亐	-11244
佟	-11245
倖	-11246
偰	-11247
冯	-11248
咳	-11249
姨	-11250
孃	-11251
寰	-11252
尘	-11253
屢	-11254
岾	-11255
廾	-11256
恃	-11257
愕	-11258
毕	-11259
汇	-11260
漳	-11261
煇	-11262
琬	-11263
瑶	-11264
瓔	-11265
瓠	-11266
甥	-11267
磔	-11268
禑	-11269
窺	-11270
纛	-11271
聃	-11272
肴	-11273
膀	-11274
萧	-11275
蕨	-11276
蠅	-11277
襪	-11278
謖	-11279
謗	-11280
讒	-11281
评	-11282
赞	-11283
迭	-11284
酊	-11285
阝	-11286
陂	-11287
鬻	-11288
鸚	-11289
ꦮ	-11290
걺	-11291
괍	-11292
놧	-11293
롮	-11294
벹	-11295
볌	-11296
쇨	-11297
썌	-11298
잨	-11299
쩃	-11300
퍈	-11301
󰋯	-11302
ǃ	-11303
̦	-11304
͙	-11305
ը	-11306
ए	-11307
घ	-11308
ौ	-11309
ీ	-11310
ပ	-11311
ရ	-11312
ᄣ	-11313
Ḥ	-11314
∈	-11315
∣	-11316
∵	-11317
ゎ	-11318
㫃	-11319
刕	-11320
卄	-11321
厓	-11322
哇	-11323
壷	-11324
姙	-11325
宍	-11326
层	-11327
恣	-11328
惶	-11329
攵	-11330
昞	-11331
晁	-11332
暠	-11333
枾	-11334
梭	-11335
椛	-11336
椽	-11337
槙	-11338
涸	-11339
滎	-11340
炼	-11341
燿	-11342
獏	-11343
痣	-11344
痩	-11345
盘	-11346
竦	-11347
耘	-11348
苍	-11349
蓑	-11350
蕙	-11351
蠡	-11352
补	-11353
衾	-11354
諶	-11355
謐	-11356
课	-11357
迴	-11358
邳	-11359
銑	-11360
銷	-11361
顒	-11362
颶	-11363
駭	-11364
鬧	-11365
鯤	-11366
곻	-11367
뀩	-11368
냬	-11369
띁	-11370
믌	-11371
밨	-11372
봔	-11373
쀠	-11374
샼	-11375
섁	-11376
쉡	-11377
앀	-11378
앧	-11379
쟙	-11380
퐞	-11381
￼	-11382
👏	-11383
💓	-11384
љ	-11385
ջ	-11386
ץ	-11387
ો	-11388
ཁ	-11389
ზ	-11390
យ	-11391
ὄ	-11392
⠈	-11393
ⵏ	-11394
ㄔ	-11395
仆	-11396
仪	-11397
侭	-11398
俎	-11399
册	-11400
劳	-11401
卸	-11402
唔	-11403
嗯	-11404
孽	-11405
帅	-11406
帙	-11407
悄	-11408
抓	-11409
揉	-11410
旼	-11411
曬	-11412
枡	-11413
桧	-11414
梳	-11415
楪	-11416
楫	-11417
楮	-11418
槓	-11419
樸	-11420
殳	-11421
涓	-11422
涕	-11423
滓	-11424
瑁	-11425
瑢	-11426
盂	-11427
眈	-11428
禕	-11429
窈	-11430
箪	-11431
籃	-11432
絨	-11433
繞	-11434
细	-11435
臻	-11436
苧	-11437
荃	-11438
蟄	-11439
诚	-11440
践	-11441
軻	-11442
逋	-11443
鈺	-11444
鉀	-11445
项	-11446
鬲	-11447
鰻	-11448
鹤	-11449
냨	-11450
닜	-11451
롑	-11452
먁	-11453
볻	-11454
봘	-11455
샊	-11456
섴	-11457
읩	-11458
줗	-11459
쩻	-11460
챃	-11461
쵀	-11462
켸	-11463
텩	-11464
툥	-11465
💥	-11466
🙂	-11467
ť	-11468
ʍ	-11469
̭	-11470
ھ	-11471
স	-11472
డ	-11473
ཀ	-11474
ཆ	-11475
አ	-11476
ុ	-11477
ᠥ	-11478
ṁ	-11479
₡	-11480
⠐	-11481
⠞	-11482
⿰	-11483
亇	-11484
亶	-11485
养	-11486
劭	-11487
咪	-11488
唵	-11489
夬	-11490
寥	-11491
慷	-11492
扌	-11493
搔	-11494
擡	-11495
擢	-11496
斃	-11497
杂	-11498
榻	-11499
櫂	-11500
歉	-11501
殤	-11502
沱	-11503
滌	-11504
狮	-11505
皋	-11506
笨	-11507
纓	-11508
膿	-11509
藜	-11510
褚	-11511
诉	-11512
豉	-11513
豺	-11514
貽	-11515
费	-11516
躑	-11517
鈕	-11518
闖	-11519
顆	-11520
须	-11521
飘	-11522
飭	-11523
鵰	-11524
鹹	-11525
뛔	-11526
묙	-11527
슽	-11528
얺	-11529
엵	-11530
잏	-11531
쨕	-11532
퇼	-11533
퐌	-11534
횅	-11535
🎁	-11536
𧶠	-11537
ŕ	-11538
ų	-11539
ǜ	-11540
ˀ	-11541
ֲ	-11542
۶	-11543
ܬ	-11544
ભ	-11545
ொ	-11546
ṟ	-11547
₴	-11548
✓	-11549
⠎	-11550
ㄅ	-11551
ㄤ	-11552
仓	-11553
伞	-11554
佃	-11555
冖	-11556
剽	-11557
唖	-11558
嘔	-11559
噗	-11560
妣	-11561
娯	-11562
嬀	-11563
寤	-11564
尒	-11565
岭	-11566
弛	-11567
撑	-11568
昉	-11569
晳	-11570
泌	-11571
渥	-11572
滔	-11573
瀅	-11574
犢	-11575
狒	-11576
獒	-11577
玟	-11578
瑄	-11579
痰	-11580
睢	-11581
硅	-11582
祷	-11583
禛	-11584
箴	-11585
翦	-11586
耨	-11587
苅	-11588
荏	-11589
蒋	-11590
諍	-11591
跆	-11592
躅	-11593
輻	-11594
郤	-11595
韮	-11596
騶	-11597
魘	-11598
ꦫ	-11599
긑	-11600
낛	-11601
롶	-11602
륩	-11603
벍	-11604
쏵	-11605
얬	-11606
쥣	-11607
짔	-11608
츅	-11609
쾃	-11610
퍙	-11611
횝	-11612
힁	-11613
🏊	-11614
😝	-11615
😢	-11616
🦊	-11617
Ŭ	-11618
ɖ	-11619
ɘ	-11620
њ	-11621
խ	-11622
չ	-11623
జ	-11624
ງ	-11625
ី	-11626
ᴖ	-11627
ở	-11628
ỹ	-11629
ῳ	-11630
∂	-11631
∮	-11632
┬	-11633
┻	-11634
◢	-11635
✊	-11636
✞	-11637
ⵍ	-11638
佾	-11639
侈	-11640
俑	-11641
倧	-11642
傻	-11643
儆	-11644
刎	-11645
勛	-11646
匚	-11647
卩	-11648
吞	-11649
咤	-11650
哟	-11651
噺	-11652
巒	-11653
庙	-11654
弌	-11655
恍	-11656
挂	-11657
撻	-11658
朮	-11659
橡	-11660
歿	-11661
洮	-11662
湟	-11663
湣	-11664
漾	-11665
濩	-11666
瀝	-11667
灝	-11668
烤	-11669
犍	-11670
瑬	-11671
甛	-11672
甯	-11673
癲	-11674
磋	-11675
緻	-11676
肏	-11677
腳	-11678
舖	-11679
蜉	-11680
蝣	-11681
襦	-11682
襷	-11683
諷	-11684
謚	-11685
讖	-11686
赏	-11687
趺	-11688
邃	-11689
酩	-11690
鉈	-11691
鉦	-11692
銙	-11693
鑓	-11694
闥	-11695
阶	-11696
隘	-11697
饔	-11698
鮒	-11699
鯰	-11700
麯	-11701
齎	-11702
끉	-11703
놘	-11704
늧	-11705
뗘	-11706
릏	-11707
밫	-11708
썖	-11709
엹	-11710
줭	-11711
췩	-11712
켭	-11713
쾬	-11714
픗	-11715
픞	-11716
💗	-11717
💡	-11718
😘	-11719
¬	-11720
Ã	-11721
ǵ	-11722
ʤ	-11723
প	-11724
়	-11725
ᄩ	-11726
ᇫ	-11727
ር	-11728
ặ	-11729
Ἑ	-11730
⓵	-11731
☘	-11732
☨	-11733
⠊	-11734
〟	-11735
ゔ	-11736
ㄊ	-11737
ㄘ	-11738
乔	-11739
亳	-11740
俾	-11741
剃	-11742
劦	-11743
勰	-11744
叅	-11745
吶	-11746
呜	-11747
咕	-11748
囀	-11749
壕	-11750
壙	-11751
奐	-11752
姒	-11753
嫦	-11754
宾	-11755
峒	-11756
帷	-11757
愴	-11758
慙	-11759
拋	-11760
欌	-11761
毌	-11762
沅	-11763
洑	-11764
涩	-11765
潞	-11766
猝	-11767
瘧	-11768
磾	-11769
积	-11770
筏	-11771
箍	-11772
糜	-11773
繇	-11774
肚	-11775
脹	-11776
臾	-11777
艷	-11778
荔	-11779
虍	-11780
蛹	-11781
蜚	-11782
裘	-11783
褓	-11784
读	-11785
賻	-11786
贺	-11787
迟	-11788
释	-11789
钻	-11790
靄	-11791
韃	-11792
饼	-11793
鵑	-11794
鸣	-11795
갊	-11796
긜	-11797
껒	-11798
댸	-11799
돨	-11800
딲	-11801
띳	-11802
뢔	-11803
먺	-11804
뾸	-11805
섧	-11806
싑	-11807
싰	-11808
얖	-11809
욷	-11810
쮀	-11811
쾍	-11812
풰	-11813
🔇	-11814
😀	-11815
🤪	-11816
Ò	-11817
ʘ	-11818
ؤ	-11819
ڭ	-11820
ܪ	-11821
ऐ	-11822
झ	-11823
ු	-11824
ฏ	-11825
฿	-11826
ླ	-11827
ግ	-11828
᠍	-11829
ᴗ	-11830
ὀ	-11831
∝	-11832
⌘	-11833
✠	-11834
⠑	-11835
⠗	-11836
ⴹ	-11837
ㄋ	-11838
丷	-11839
僵	-11840
匃	-11841
压	-11842
呻	-11843
墩	-11844
壑	-11845
奋	-11846
婕	-11847
嫂	-11848
嫩	-11849
嬲	-11850
孑	-11851
屿	-11852
巿	-11853
帕	-11854
彘	-11855
戡	-11856
拈	-11857
枫	-11858
棹	-11859
椵	-11860
歟	-11861
毖	-11862
泮	-11863
涜	-11864
灬	-11865
炬	-11866
燔	-11867
猊	-11868
猗	-11869
确	-11870
礦	-11871
秭	-11872
稧	-11873
纘	-11874
绵	-11875
脯	-11876
腋	-11877
臚	-11878
虾	-11879
覩	-11880
谈	-11881
谜	-11882
遯	-11883
邓	-11884
釀	-11885
隧	-11886
霑	-11887
頎	-11888
顛	-11889
黏	-11890
ꦱ	-11891
꺆	-11892
껭	-11893
놜	-11894
뇻	-11895
떪	-11896
럐	-11897
붘	-11898
웆	-11899
읓	-11900
찦	-11901
켔	-11902
켱	-11903
햠	-11904
힜	-11905
	-11906
👦	-11907
👧	-11908
Ì	-11909
Ù	-11910
ǂ	-11911
শ	-11912
શ	-11913
చ	-11914
శ	-11915
ර	-11916
ཡ	-11917
ფ	-11918
ᄝ	-11919
ስ	-11920
ទ	-11921
វ	-11922
ḫ	-11923
₮	-11924
✽	-11925
⣀	-11926
凭	-11927
吝	-11928
嗨	-11929
奖	-11930
妤	-11931
孵	-11932
屮	-11933
廂	-11934
廌	-11935
廩	-11936
彁	-11937
悰	-11938
槊	-11939
橐	-11940
歼	-11941
沟	-11942
沾	-11943
漑	-11944
潇	-11945
潑	-11946
濛	-11947
獰	-11948
珩	-11949
璨	-11950
皂	-11951
瞋	-11952
稠	-11953
竞	-11954
笈	-11955
签	-11956
綵	-11957
縻	-11958
翩	-11959
虧	-11960
蚤	-11961
蝿	-11962
裹	-11963
詡	-11964
豁	-11965
賚	-11966
跌	-11967
较	-11968
逾	-11969
鐥	-11970
陕	-11971
雎	-11972
鯱	-11973
鹸	-11974
麝	-11975
ꉂ	-11976
깆	-11977
랕	-11978
룝	-11979
뵜	-11980
븓	-11981
빧	-11982
삳	-11983
샇	-11984
앆	-11985
얊	-11986
얭	-11987
윜	-11988
쥤	-11989
칬	-11990
튁	-11991
펔	-11992
🇵	-11993
🍯	-11994
🍰	-11995
🎄	-11996
🏼	-11997
👄	-11998
💰	-11999
ņ	-12000
Œ	-12001
ȡ	-12002
ɺ	-12003
ʡ	-12004
ʹ	-12005
͂	-12006
ో	-12007
េ	-12008
ែ	-12009
‭	-12010
☯	-12011
❣	-12012
⠻	-12013
⣶	-12014
ⵓ	-12015
〻	-12016
ㄦ	-12017
举	-12018
乇	-12019
亅	-12020
勣	-12021
勺	-12022
卢	-12023
啜	-12024
嘻	-12025
孜	-12026
崆	-12027
憙	-12028
扣	-12029
攣	-12030
显	-12031
柬	-12032
栓	-12033
椀	-12034
殞	-12035
氈	-12036
氧	-12037
涂	-12038
淪	-12039
渼	-12040
滩	-12041
澮	-12042
灾	-12043
牀	-12044
犁	-12045
珎	-12046
痍	-12047
痔	-12048
盼	-12049
磻	-12050
竣	-12051
緬	-12052
縊	-12053
缸	-12054
羡	-12055
翹	-12056
耉	-12057
舫	-12058
菽	-12059
蚣	-12060
蝨	-12061
覡	-12062
赣	-12063
蹲	-12064
輓	-12065
轰	-12066
阎	-12067
馱	-12068
駈	-12069
鸭	-12070
黽	-12071
꺘	-12072
뀠	-12073
랃	-12074
뢍	-12075
릳	-12076
맀	-12077
믁	-12078
븃	-12079
븰	-12080
뻩	-12081
슶	-12082
싄	-12083
젧	-12084
쥡	-12085
쩠	-12086
탼	-12087
팦	-12088
홥	-12089
훚	-12090
훡	-12091
흨	-12092
🌕	-12093
🍆	-12094
💋	-12095
🚇	-12096
󠂪	-12097
Ș	-12098
ٌ	-12099
ਲ	-12100
ཚ	-12101
ᄶ	-12102
ំ	-12103
ỗ	-12104
ἦ	-12105
↳	-12106
☓	-12107
⚓	-12108
⠠	-12109
ⵎ	-12110
丛	-12111
勹	-12112
喂	-12113
嗶	-12114
噢	-12115
堉	-12116
壌	-12117
壟	-12118
媧	-12119
崛	-12120
恙	-12121
憚	-12122
捗	-12123
揀	-12124
暘	-12125
朦	-12126
杲	-12127
柰	-12128
槇	-12129
檐	-12130
汕	-12131
洌	-12132
瀘	-12133
煦	-12134
燉	-12135
瑙	-12136
砰	-12137
礻	-12138
簇	-12139
緘	-12140
緡	-12141
罹	-12142
胚	-12143
芍	-12144
茎	-12145
茗	-12146
葭	-12147
蒐	-12148
藐	-12149
藷	-12150
蘋	-12151
蜈	-12152
謔	-12153
讲	-12154
蹇	-12155
躲	-12156
郃	-12157
銚	-12158
鏃	-12159
閘	-12160
餞	-12161
饋	-12162
驟	-12163
鱈	-12164
鵡	-12165
麋	-12166
麩	-12167
黯	-12168
ꥸ	-12169
괏	-12170
굘	-12171
꾈	-12172
넊	-12173
딋	-12174
딍	-12175
롓	-12176
륏	-12177
맽	-12178
묷	-12179
뮹	-12180
벫	-12181
볫	-12182
봍	-12183
붗	-12184
뻿	-12185
삻	-12186
숼	-12187
싁	-12188
쏀	-12189
얙	-12190
얫	-12191
옺	-12192
옿	-12193
욋	-12194
웈	-12195
윘	-12196
잋	-12197
쵱	-12198
쿸	-12199
탙	-12200
턍	-12201
텤	-12202
팊	-12203
푕	-12204
헼	-12205
🇸	-12206
🌹	-12207
🍀	-12208
🏧	-12209
🐹	-12210
👉	-12211
🤔	-12212
🤗	-12213
𪚥	-12214
Ĉ	-12215
Ɵ	-12216
ȶ	-12217
Ί	-12218
Ү	-12219
Ӏ	-12220
ׂ	-12221
ई	-12222
ী	-12223
ਿ	-12224
ੇ	-12225
అ	-12226
ฎ	-12227
ນ	-12228
ျ	-12229
ᆝ	-12230
ẽ	-12231
┕	-12232
╯	-12233
╱	-12234
◡	-12235
♮	-12236
⛔	-12237
➖	-12238
ⵖ	-12239
ㄈ	-12240
伪	-12241
侖	-12242
倾	-12243
冏	-12244
净	-12245
剔	-12246
匯	-12247
匸	-12248
叹	-12249
哆	-12250
块	-12251
夊	-12252
巪	-12253
彐	-12254
忱	-12255
挹	-12256
旀	-12257
暾	-12258
棵	-12259
毯	-12260
滇	-12261
瀚	-12262
狱	-12263
砒	-12264
础	-12265
碰	-12266
簒	-12267
籐	-12268
缩	-12269
羚	-12270
羿	-12271
聆	-12272
肛	-12273
脛	-12274
荡	-12275
葆	-12276
襴	-12277
訢	-12278
贤	-12279
赖	-12280
鍠	-12281
鐔	-12282
针	-12283
铭	-12284
閹	-12285
闯	-12286
阁	-12287
靳	-12288
靼	-12289
頡	-12290
鬨	-12291
鮪	-12292
鴫	-12293
鶉	-12294
鹏	-12295
鼈	-12296
龠	-12297
걈	-12298
굡	-12299
껶	-12300
댤	-12301
됀	-12302
럄	-12303
맊	-12304
볔	-12305
봌	-12306
빍	-12307
뻠	-12308
뽓	-12309
샆	-12310
샏	-12311
엗	-12312
웄	-12313
쟬	-12314
좂	-12315
줸	-12316
툉	-12317
튝	-12318
훟	-12319
ퟗ	-12320
𐎠	-12321
👥	-12322
😁	-12323
😖	-12324
🙋	-12325
ɳ	-12326
˨	-12327
ً	-12328
ܒ	-12329
ठ	-12330
ੰ	-12331
ರ	-12332
ි	-12333
ฮ	-12334
ཞ	-12335
ᅋ	-12336
ដ	-12337
ហ	-12338
អ	-12339
ᡧ	-12340
ṳ	-12341
ằ	-12342
ἤ	-12343
Ῥ	-12344
♻	-12345
⚔	-12346
✂	-12347
ⵙ	-12348
㐃	-12349
俞	-12350
倆	-12351
僮	-12352
劔	-12353
卧	-12354
呦	-12355
呱	-12356
咥	-12357
喻	-12358
嘶	-12359
噶	-12360
塹	-12361
壎	-12362
寳	-12363
岷	-12364
惧	-12365
惲	-12366
憔	-12367
扬	-12368
攬	-12369
敾	-12370
斫	-12371
昀	-12372
棣	-12373
椧	-12374
殮	-12375
滬	-12376
瀕	-12377
焜	-12378
爿	-12379
猖	-12380
痢	-12381
筮	-12382
篁	-12383
膵	-12384
苓	-12385
菇	-12386
萝	-12387
蕤	-12388
螭	-12389
蠕	-12390
衒	-12391
褻	-12392
覃	-12393
諄	-12394
诞	-12395
误	-12396
谋	-12397
蹕	-12398
躪	-12399
躱	-12400
逕	-12401
鋳	-12402
鋺	-12403
鏈	-12404
锐	-12405
陇	-12406
隶	-12407
霏	-12408
騅	-12409
騫	-12410
髣	-12411
궝	-12412
끟	-12413
덭	-12414
듫	-12415
떔	-12416
렡	-12417
벓	-12418
붱	-12419
뻭	-12420
뽂	-12421
쎕	-12422
쏱	-12423
옄	-12424
왯	-12425
챂	-12426
춀	-12427
췻	-12428
텦	-12429
텹	-12430
팖	-12431
펲	-12432
퓻	-12433
홇	-12434
𐤟	-12435
🏆	-12436
💪	-12437
🕺	-12438
🖤	-12439
😉	-12440
🥰	-12441
Ɔ	-12442
ƿ	-12443
ې	-12444
ܟ	-12445
ಾ	-12446
್	-12447
ວ	-12448
ཕ	-12449
ံ	-12450
წ	-12451
ჯ	-12452
ᆒ	-12453
ᇱ	-12454
፡	-12455
ᓇ	-12456
ἁ	-12457
ῃ	-12458
⁀	-12459
₵	-12460
⌟	-12461
▬	-12462
☚	-12463
☹	-12464
✅	-12465
⠇	-12466
⠍	-12467
⠝	-12468
⤵	-12469
ⴽ	-12470
ㄭ	-12471
㑣	-12472
俘	-12473
俶	-12474
厉	-12475
呐	-12476
嗇	-12477
嘿	-12478
囑	-12479
嫪	-12480
屄	-12481
崧	-12482
弉	-12483
彿	-12484
悤	-12485
悧	-12486
愎	-12487
抒	-12488
拖	-12489
拟	-12490
捩	-12491
暄	-12492
暝	-12493
暻	-12494
枇	-12495
榔	-12496
樗	-12497
歃	-12498
毐	-12499
浹	-12500
涎	-12501
澍	-12502
濞	-12503
煤	-12504
熄	-12505
狎	-12506
獬	-12507
獺	-12508
玳	-12509
珞	-12510
琫	-12511
琼	-12512
皎	-12513
盎	-12514
矧	-12515
禔	-12516
禺	-12517
窕	-12518
綰	-12519
纒	-12520
羔	-12521
耒	-12522
臀	-12523
藺	-12524
贍	-12525
赶	-12526
递	-12527
錚	-12528
鑫	-12529
鞦	-12530
顓	-12531
鬢	-12532
鬯	-12533
鰭	-12534
鴈	-12535
鴒	-12536
齮	-12537
곹	-12538
긘	-12539
꼮	-12540
꿕	-12541
눋	-12542
돎	-12543
둗	-12544
뤤	-12545
뵬	-12546
숸	-12547
쌴	-12548
쒯	-12549
옂	-12550
윶	-12551
잛	-12552
젴	-12553
쪠	-12554
쵝	-12555
톸	-12556
팏	-12557
헑	-12558
헜	-12559
횰	-12560
𝅥	-12561
🌼	-12562
🐥	-12563
💛	-12564
💠	-12565
💩	-12566
📱	-12567
🤟	-12568
ˆ	-12569
ͦ	-12570
ҳ	-12571
Խ	-12572
٩	-12573
ં	-12574
బ	-12575
ລ	-12576
້	-12577
ྐ	-12578
პ	-12579
ც	-12580
ᄙ	-12581
ᄬ	-12582
ᇦ	-12583
ል	-12584
መ	-12585
ም	-12586
ብ	-12587
ោ	-12588
᠈	-12589
ḏ	-12590
Ṣ	-12591
ὖ	-12592
ὼ	-12593
⊕	-12594
⌜	-12595
▥	-12596
▴	-12597
☝	-12598
✒	-12599
✮	-12600
➚	-12601
➰	-12602
⡀	-12603
⢿	-12604
仅	-12605
仿	-12606
佯	-12607
侗	-12608
冻	-12609
剡	-12610
勗	-12611
匆	-12612
咏	-12613
咩	-12614
哂	-12615
售	-12616
喃	-12617
嗔	-12618
噬	-12619
圉	-12620
圻	-12621
坮	-12622
垸	-12623
夺	-12624
妍	-12625
嫗	-12626
巛	-12627
庖	-12628
廐	-12629
抬	-12630
撐	-12631
杼	-12632
槩	-12633
渣	-12634
瀏	-12635
灿	-12636
煕	-12637
獼	-12638
甌	-12639
畦	-12640
瘤	-12641
盐	-12642
监	-12643
睾	-12644
筥	-12645
筧	-12646
筭	-12647
箜	-12648
簽	-12649
绽	-12650
缠	-12651
翕	-12652
腱	-12653
舷	-12654
芷	-12655
苴	-12656
葺	-12657
蓍	-12658
蝮	-12659
訝	-12660
謌	-12661
讨	-12662
访	-12663
谦	-12664
豎	-12665
购	-12666
跃	-12667
蹶	-12668
轎	-12669
辈	-12670
逑	-12671
邽	-12672
酇	-12673
醯	-12674
醵	-12675
钓	-12676
闲	-12677
闹	-12678
韆	-12679
颖	-12680
饉	-12681
騈	-12682
骏	-12683
鰒	-12684
鵄	-12685
ꦥ	-12686
ꦺ	-12687
굔	-12688
긏	-12689
낪	-12690
넾	-12691
놰	-12692
닽	-12693
듥	-12694
띕	-12695
럈	-12696
렿	-12697
뤃	-12698
륶	-12699
먿	-12700
빢	-12701
셑	-12702
슳	-12703
앶	-12704
엍	-12705
왚	-12706
좄	-12707
좉	-12708
짞	-12709
짥	-12710
짪	-12711
쯰	-12712
켙	-12713
툑	-12714
퉆	-12715
퉨	-12716
핕	-12717
햬	-12718
홤	-12719
흿	-12720
𐤁	-12721
󰡔	-12722
󰡕	-12723
Ğ	-12724
Ŋ	-12725
Ŏ	-12726
ǀ	-12727
ǝ	-12728
ʜ	-12729
ӣ	-12730
۲	-12731
ਗ	-12732
ક	-12733
ી	-12734
ૃ	-12735
ஆ	-12736
ళ	-12737
ක	-12738
ᄞ	-12739
ᆽ	-12740
ለ	-12741
የ	-12742
ᑎ	-12743
ខ	-12744
Ὀ	-12745
ὕ	-12746
Ὑ	-12747
ῇ	-12748
⊆	-12749
║	-12750
☁	-12751
☟	-12752
✉	-12753
⠃	-12754
⠙	-12755
⠥	-12756
⣤	-12757
ⵟ	-12758
ⵡ	-12759
佔	-12760
俚	-12761
倜	-12762
儻	-12763
冇	-12764
卬	-12765
厩	-12766
吁	-12767
嘅	-12768
噪	-12769
嚳	-12770
囂	-12771
囯	-12772
圄	-12773
坵	-12774
堊	-12775
墙	-12776
奘	-12777
妇	-12778
妲	-12779
宽	-12780
帚	-12781
廡	-12782
弭	-12783
忖	-12784
惻	-12785
慚	-12786
摹	-12787
擺	-12788
斟	-12789
旽	-12790
昺	-12791
晧	-12792
暨	-12793
枸	-12794
柶	-12795
桝	-12796
棱	-12797
榆	-12798
榕	-12799
檔	-12800
檣	-12801
汨	-12802
泂	-12803
润	-12804
渙	-12805
滚	-12806
漪	-12807
煒	-12808
煖	-12809
熬	-12810
牋	-12811
珹	-12812
瑯	-12813
疽	-12814
瘍	-12815
祔	-12816
篌	-12817
緹	-12818
绪	-12819
罩	-12820
羁	-12821
羂	-12822
苩	-12823
荇	-12824
蚕	-12825
觜	-12826
誹	-12827
諴	-12828
谊	-12829
豢	-12830
鑢	-12831
闽	-12832
雒	-12833
韵	-12834
顫	-12835
顰	-12836
颂	-12837
颠	-12838
馹	-12839
驾	-12840
骼	-12841
麁	-12842
齿	-12843
ꦭ	-12844
궬	-12845
긧	-12846
긿	-12847
뀄	-12848
뀰	-12849
끆	-12850
돇	-12851
돟	-12852
둿	-12853
떯	-12854
뗼	-12855
뢱	-12856
룍	-12857
뤌	-12858
붹	-12859
앒	-12860
엫	-12861
옸	-12862
욯	-12863
젛	-12864
쥽	-12865
쪾	-12866
틊	-12867
핣	-12868
혬	-12869
홐	-12870
흒	-12871
힠	-12872
🎥	-12873
👋	-12874
🖕	-12875
😡	-12876
🚢	-12877
𦻙	-12878
Ț	-12879
Ȝ	-12880
ȴ	-12881
ɱ	-12882
ɽ	-12883
ʇ	-12884
Ъ	-12885
Ә	-12886
ۈ	-12887
۵	-12888
ܕ	-12889
ܫ	-12890
ॐ	-12891
খ	-12892
ট	-12893
ਸ	-12894
ஹ	-12895
්	-12896
ฒ	-12897
๊	-12898
ཐ	-12899
စ	-12900
သ	-12901
ᄛ	-12902
ኢ	-12903
እ	-12904
ው	-12905
ይ	-12906
ድ	-12907
ᑦ	-12908
ᖅ	-12909
ᗜ	-12910
័	-12911
ẹ	-12912
∕	-12913
∗	-12914
♛	-12915
✋	-12916
✖	-12917
⠋	-12918
⠲	-12919
⣾	-12920
⬢	-12921
ⵜ	-12922
ⵢ	-12923
⸺	-12924
⻌	-12925
⻍	-12926
㉿	-12927
买	-12928
亏	-12929
仝	-12930
佚	-12931
儷	-12932
兕	-12933
匏	-12934
卖	-12935
叠	-12936
唳	-12937
囉	-12938
塙	-12939
峪	-12940
嵬	-12941
幘	-12942
廴	-12943
忄	-12944
悬	-12945
惕	-12946
挪	-12947
搗	-12948
搶	-12949
昰	-12950
晙	-12951
杳	-12952
椚	-12953
橃	-12954
歧	-12955
汜	-12956
沇	-12957
濆	-12958
狁	-12959
狠	-12960
狽	-12961
珮	-12962
琚	-12963
畎	-12964
畧	-12965
癩	-12966
癪	-12967
睟	-12968
磡	-12969
篮	-12970
糎	-12971
緇	-12972
縉	-12973
縹	-12974
繝	-12975
综	-12976
膂	-12977
艳	-12978
苾	-12979
蕎	-12980
薺	-12981
衤	-12982
謫	-12983
譏	-12984
蹤	-12985
軼	-12986
輅	-12987
轩	-12988
郯	-12989
釆	-12990
鉗	-12991
鍔	-12992
鑾	-12993
锟	-12994
閫	-12995
闭	-12996
闵	-12997
顗	-12998
飩	-12999
饑	-13000
鮨	-13001
鰹	-13002
鳧	-13003
꺙	-13004
껠	-13005
껼	-13006
끵	-13007
닁	-13008
뎔	-13009
둉	-13010
듼	-13011
땝	-13012
떢	-13013
똟	-13014
롣	-13015
맗	-13016
뭊	-13017
봡	-13018
븕	-13019
섡	-13020
쎆	-13021
쑵	-13022
앛	-13023
옫	-13024
웱	-13025
잗	-13026
짘	-13027
쨤	-13028
쫍	-13029
찎	-13030
캍	-13031
콦	-13032
킾	-13033
턀	-13034
텽	-13035
퐐	-13036
핻	-13037
햛	-13038
휵	-13039
𝅘	-13040
🇪	-13041
🍑	-13042
🍫	-13043
🍳	-13044
🔆	-13045
🙈	-13046
Ĝ	-13047
Ŝ	-13048
ǹ	-13049
ɚ	-13050
ɞ	-13051
˔	-13052
˥	-13053
Є	-13054
ђ	-13055
Ѳ	-13056
Ն	-13057
փ	-13058
ই	-13059
ੀ	-13060
બ	-13061
ා	-13062
ฤ	-13063
ๆ	-13064
ᐊ	-13065
ិ	-13066
់	-13067
ᴏ	-13068
ὔ	-13069
ῥ	-13070
◓	-13071
☉	-13072
✯	-13073
⠟	-13074
⡿	-13075
ㄆ	-13076
乚	-13077
亼	-13078
伙	-13079
伷	-13080
佞	-13081
佬	-13082
佶	-13083
佺	-13084
侧	-13085
儋	-13086
冪	-13087
匁	-13088
咯	-13089
噎	-13090
囹	-13091
坛	-13092
垒	-13093
埰	-13094
壅	-13095
尓	-13096
尭	-13097
岚	-13098
廆	-13099
忝	-13100
怏	-13101
悛	-13102
悸	-13103
扫	-13104
拚	-13105
损	-13106
插	-13107
搦	-13108
摄	-13109
摆	-13110
摔	-13111
攄	-13112
斩	-13113
暂	-13114
暐	-13115
栴	-13116
梔	-13117
楹	-13118
毟	-13119
洹	-13120
渟	-13121
湮	-13122
滂	-13123
澣	-13124
濘	-13125
烦	-13126
熏	-13127
爹	-13128
珙	-13129
珦	-13130
琯	-13131
璡	-13132
瓮	-13133
痒	-13134
瘠	-13135
癶	-13136
瞄	-13137
矿	-13138
砬	-13139
磎	-13140
禳	-13141
窄	-13142
窝	-13143
筌	-13144
簞	-13145
絮	-13146
綃	-13147
纈	-13148
纵	-13149
罒	-13150
芈	-13151
菠	-13152
萠	-13153
蒿	-13154
蚌	-13155
袮	-13156
袿	-13157
豔	-13158
貘	-13159
贇	-13160
贔	-13161
赐	-13162
赧	-13163
趁	-13164
跛	-13165
蹙	-13166
軈	-13167
辅	-13168
辆	-13169
迗	-13170
逓	-13171
遏	-13172
郿	-13173
鄢	-13174
鄣	-13175
鄱	-13176
鈸	-13177
鏟	-13178
钦	-13179
铺	-13180
锤	-13181
闫	-13182
雋	-13183
鞬	-13184
韭	-13185
頊	-13186
颤	-13187
飒	-13188
馗	-13189
髟	-13190
鬐	-13191
鴟	-13192
鶺	-13193
鷂	-13194
鸦	-13195
鸿	-13196
ꜣ	-13197
굻	-13198
긂	-13199
뉙	-13200
늫	-13201
닾	-13202
덍	-13203
둴	-13204
롴	-13205
먜	-13206
밊	-13207
밯	-13208
삤	-13209
삨	-13210
싵	-13211
쎙	-13212
쏳	-13213
쒕	-13214
앐	-13215
잪	-13216
잫	-13217
젏	-13218
짗	-13219
쳠	-13220
쳴	-13221
칮	-13222
컄	-13223
퇵	-13224
튑	-13225
흇	-13226
힡	-13227
ퟦ	-13228
𐎹	-13229
𐤋	-13230
𐤌	-13231
🇨	-13232
🌑	-13233
🍚	-13234
🎈	-13235
📸	-13236
🔒	-13237
😠	-13238
Ë	-13239
Ý	-13240
į	-13241
ɶ	-13242
ʧ	-13243
˧	-13244
џ	-13245
Գ	-13246
Տ	-13247
ײ	-13248
छ	-13249
চ	-13250
મ	-13251
ణ	-13252
ฝ	-13253
ະ	-13254
ჭ	-13255
ᅄ	-13256
ᆉ	-13257
ᆑ	-13258
ራ	-13259
በ	-13260
ነ	-13261
ና	-13262
ዮ	-13263
ደ	-13264
ល	-13265
᠎	-13266
ṯ	-13267
Ἄ	-13268
⇗	-13269
☂	-13270
♜	-13271
⠓	-13272
⠶	-13273
⠾	-13274
⣴	-13275
ⲟ	-13276
ⵀ	-13277
乜	-13278
亟	-13279
亿	-13280
佣	-13281
偲	-13282
僊	-13283
僿	-13284
刳	-13285
嘎	-13286
嚕	-13287
圀	-13288
坟	-13289
坰	-13290
堈	-13291
墀	-13292
墺	-13293
夠	-13294
婧	-13295
嬬	-13296
审	-13297
宪	-13298
岫	-13299
崚	-13300
嵒	-13301
嶷	-13302
徧	-13303
恁	-13304
慤	-13305
懊	-13306
扰	-13307
拇	-13308
擣	-13309
旒	-13310
杌	-13311
杷	-13312
檮	-13313
沘	-13314
淙	-13315
潯	-13316
濶	-13317
烫	-13318
煚	-13319
琨	-13320
畯	-13321
畸	-13322
痼	-13323
皺	-13324
眭	-13325
祘	-13326
秧	-13327
穽	-13328
筐	-13329
紮	-13330
緜	-13331
纜	-13332
纹	-13333
缇	-13334
罅	-13335
羆	-13336
肹	-13337
臍	-13338
臏	-13339
舂	-13340
菈	-13341
葳	-13342
蔷	-13343
蕊	-13344
藕	-13345
藹	-13346
蟋	-13347
蠣	-13348
褘	-13349
襾	-13350
詈	-13351
讌	-13352
订	-13353
賨	-13354
贞	-13355
贼	-13356
迺	-13357
邮	-13358
邰	-13359
鈐	-13360
銹	-13361
鍬	-13362
鑠	-13363
阱	-13364
陘	-13365
隰	-13366
髡	-13367
鰍	-13368
鱒	-13369
鷰	-13370
ꦼ	-13371
귕	-13372
긶	-13373
꾱	-13374
놂	-13375
덣	-13376
듵	-13377
떘	-13378
뗍	-13379
뚦	-13380
랟	-13381
럅	-13382
맃	-13383
몋	-13384
벖	-13385
볃	-13386
붴	-13387
뼁	-13388
샒	-13389
셖	-13390
쐉	-13391
쓿	-13392
씜	-13393
얃	-13394
얋	-13395
왭	-13396
왹	-13397
읉	-13398
쯱	-13399
컶	-13400
쾩	-13401
퀍	-13402
퀧	-13403
탹	-13404
폔	-13405
햌	-13406
ힹ	-13407
𐏁	-13408
𐤓	-13409
🇧	-13410
🌈	-13411
🍒	-13412
🍕	-13413
💢	-13414
😌	-13415
🙆	-13416
🛳	-13417
🤳	-13418
𡃁	-13419
Ă	-13420
ļ	-13421
Ř	-13422
ʙ	-13423
Ό	-13424
҇	-13425
ҷ	-13426
һ	-13427
ژ	-13428
থ	-13429
ধ	-13430
ভ	-13431
ো	-13432
ਪ	-13433
દ	-13434
ూ	-13435
ည	-13436
လ	-13437
ᆂ	-13438
ዊ	-13439
ጵ	-13440
ḿ	-13441
⛳	-13442
❀	-13443
❘	-13444
➁	-13445
⠣	-13446
⠨	-13447
⠿	-13448
⦆	-13449
ⱱ	-13450
丌	-13451
乀	-13452
乶	-13453
亹	-13454
伋	-13455
佈	-13456
倬	-13457
僙	-13458
兖	-13459
冃	-13460
冈	-13461
凩	-13462
呸	-13463
唎	-13464
噩	-13465
囍	-13466
囘	-13467
岦	-13468
帑	-13469
彻	-13470
徭	-13471
忉	-13472
懈	-13473
懦	-13474
扃	-13475
旃	-13476
旿	-13477
晕	-13478
晗	-13479
暳	-13480
朐	-13481
栩	-13482
棊	-13483
楗	-13484
檳	-13485
汞	-13486
汴	-13487
渐	-13488
瀣	-13489
瀷	-13490
炽	-13491
烋	-13492
犹	-13493
琓	-13494
琺	-13495
璠	-13496
畅	-13497
疸	-13498
盔	-13499
盥	-13500
眀	-13501
睹	-13502
瞥	-13503
砍	-13504
窑	-13505
竅	-13506
篥	-13507
籙	-13508
籩	-13509
紊	-13510
罍	-13511
羋	-13512
肃	-13513
艤	-13514
苽	-13515
莢	-13516
蠹	-13517
裃	-13518
览	-13519
詁	-13520
谎	-13521
豌	-13522
贓	-13523
贾	-13524
轡	-13525
辮	-13526
逡	-13527
邠	-13528
酿	-13529
釭	-13530
銍	-13531
閾	-13532
闓	-13533
鞮	-13534
顙	-13535
驻	-13536
骄	-13537
鼉	-13538
龄	-13539
ꦴ	-13540
굑	-13541
깺	-13542
꺔	-13543
꺤	-13544
뀡	-13545
닸	-13546
돞	-13547
뒥	-13548
똏	-13549
똭	-13550
렄	-13551
룄	-13552
뤂	-13553
맄	-13554
맍	-13555
멫	-13556
멭	-13557
뫙	-13558
뭀	-13559
뭠	-13560
뭤	-13561
뱜	-13562
봥	-13563
붊	-13564
붤	-13565
붯	-13566
빟	-13567
뻈	-13568
뻨	-13569
쀳	-13570
쁌	-13571
슆	-13572
슦	-13573
싾	-13574
왉	-13575
쟂	-13576
쟞	-13577
죶	-13578
즑	-13579
쯉	-13580
챼	-13581
췡	-13582
컼	-13583
켘	-13584
퀏	-13585
텉	-13586
톹	-13587
퉹	-13588
퍌	-13589
핔	-13590
	-13591
🇯	-13592
🍉	-13593
🍧	-13594
🍴	-13595
🐾	-13596
👎	-13597
🔍	-13598
🔼	-13599
😲	-13600
𤴐	-13601
Ć	-13602
Ź	-13603
ȟ	-13604
Ϛ	-13605
ϟ	-13606
֙	-13607
ञ	-13608
ਮ	-13609
ਹ	-13610
ఎ	-13611
ಮ	-13612
ီ	-13613
ყ	-13614
ᄔ	-13615
ᄕ	-13616
ᅎ	-13617
ᇂ	-13618
ᇐ	-13619
ሥ	-13620
ረ	-13621
ᑕ	-13622
ᡯ	-13623
ẞ	-13624
ẩ	-13625
ἕ	-13626
ἢ	-13627
⇧	-13628
∎	-13629
∏	-13630
⊥	-13631
⌋	-13632
⠏	-13633
⠚	-13634
⠽	-13635
⿱	-13636
㐂	-13637
亖	-13638
倀	-13639
倅	-13640
凧	-13641
匝	-13642
厠	-13643
叮	-13644
吨	-13645
啪	-13646
啾	-13647
嗄	-13648
嚥	-13649
坠	-13650
垕	-13651
墅	-13652
壼	-13653
妠	-13654
姮	-13655
嫣	-13656
嫻	-13657
岌	-13658
峭	-13659
弈	-13660
悝	-13661
懃	-13662
捍	-13663
搞	-13664
摛	-13665
撈	-13666
旵	-13667
晥	-13668
枰	-13669
桌	-13670
樁	-13671
歙	-13672
泫	-13673
浆	-13674
淞	-13675
淼	-13676
湫	-13677
滁	-13678
澔	-13679
烘	-13680
烝	-13681
熒	-13682
牵	-13683
牺	-13684
犒	-13685
獫	-13686
珖	-13687
璀	-13688
璹	-13689
疝	-13690
疱	-13691
痙	-13692
硼	-13693
祎	-13694
稳	-13695
篷	-13696
簧	-13697
籟	-13698
綝	-13699
縑	-13700
縡	-13701
纷	-13702
纽	-13703
罌	-13704
羸	-13705
翫	-13706
膩	-13707
舩	-13708
茱	-13709
莓	-13710
莹	-13711
菉	-13712
萼	-13713
薤	-13714
蘂	-13715
虯	-13716
螟	-13717
蟀	-13718
蟆	-13719
袒	-13720
袢	-13721
覈	-13722
诱	-13723
谓	-13724
貉	-13725
贡	-13726
货	-13727
贸	-13728
赋	-13729
跖	-13730
蹠	-13731
躾	-13732
轆	-13733
轝	-13734
辑	-13735
迈	-13736
迊	-13737
迲	-13738
遽	-13739
郕	-13740
醱	-13741
鈇	-13742
鈎	-13743
鐎	-13744
鞴	-13745
韦	-13746
頴	-13747
颪	-13748
騭	-13749
騮	-13750
驩	-13751
髫	-13752
鬆	-13753
鰂	-13754
鰯	-13755
鵐	-13756
麹	-13757
黻	-13758
龘	-13759
ꦩ	-13760
ꦿ	-13761
갘	-13762
겿	-13763
곲	-13764
껙	-13765
껩	-13766
냏	-13767
녂	-13768
놎	-13769
뇔	-13770
닏	-13771
댇	-13772
뎝	-13773
둏	-13774
듰	-13775
딀	-13776
뚁	-13777
랰	-13778
렏	-13779
뢉	-13780
륻	-13781
멏	-13782
뱊	-13783
뱦	-13784
벐	-13785
볎	-13786
볽	-13787
뾴	-13788
쀏	-13789
쀾	-13790
쁙	-13791
쁭	-13792
삧	-13793
솸	-13794
숳	-13795
슟	-13796
슢	-13797
싷	-13798
쌧	-13799
씃	-13800
옒	-13801
읹	-13802
읿	-13803
젶	-13804
쨥	-13805
쩼	-13806
쫜	-13807
퀌	-13808
톲	-13809
폇	-13810
핮	-13811
𐎡	-13812
𐤉	-13813
🆕	-13814
🌝	-13815
🍇	-13816
🍊	-13817
🎮	-13818
👊	-13819
🙇	-13820
🚩	-13821
𥝱	-13822
𨋢	-13823
Ě	-13824
ĥ	-13825
ľ	-13826
ű	-13827
Ǝ	-13828
Ɛ	-13829
Ư	-13830
ǁ	-13831
ɓ	-13832
ɗ	-13833
ɮ	-13834
ˁ	-13835
ˉ	-13836
ѥ	-13837
Ұ	-13838
Ե	-13839
Վ	-13840
۳	-13841
ܥ	-13842
ঙ	-13843
ছ	-13844
ণ	-13845
ਣ	-13846
ੋ	-13847
અ	-13848
ొ	-13849
ಯ	-13850
്	-13851
ྟ	-13852
ခ	-13853
အ	-13854
့	-13855
ᇌ	-13856
ላ	-13857
ማ	-13858
ወ	-13859
ገ	-13860
ፍ	-13861
ᐃ	-13862
ᓂ	-13863
ᚦ	-13864
ច	-13865
ណ	-13866
ូ	-13867
ḗ	-13868
ḻ	-13869
Ἅ	-13870
Ἱ	-13871
ᾰ	-13872
⌈	-13873
┖	-13874
▿	-13875
☧	-13876
☰	-13877
✪	-13878
❸	-13879
⠘	-13880
⠳	-13881
ⲁ	-13882
⻎	-13883
㐘	-13884
㳞	-13885
丄	-13886
丧	-13887
仞	-13888
伉	-13889
减	-13890
凑	-13891
剿	-13892
叁	-13893
嚙	-13894
囓	-13895
塋	-13896
塌	-13897
夥	-13898
姗	-13899
婴	-13900
媵	-13901
屌	-13902
屓	-13903
嶌	-13904
嶮	-13905
币	-13906
徇	-13907
徼	-13908
怦	-13909
愆	-13910
慇	-13911
慵	-13912
憊	-13913
懌	-13914
扑	-13915
扼	-13916
撚	-13917
撼	-13918
攔	-13919
旄	-13920
昑	-13921
晄	-13922
晛	-13923
朿	-13924
枋	-13925
柞	-13926
检	-13927
棨	-13928
榧	-13929
榷	-13930
欸	-13931
污	-13932
泵	-13933
洟	-13934
溯	-13935
潾	-13936
澐	-13937
焙	-13938
熠	-13939
牖	-13940
牴	-13941
犇	-13942
犭	-13943
狻	-13944
玏	-13945
玠	-13946
珽	-13947
瑈	-13948
瑭	-13949
瑱	-13950
璂	-13951
瘻	-13952
癎	-13953
癮	-13954
癰	-13955
盪	-13956
礬	-13957
穷	-13958
筝	-13959
簷	-13960
籾	-13961
紆	-13962
絅	-13963
綎	-13964
綦	-13965
繒	-13966
纐	-13967
绣	-13968
罚	-13969
翮	-13970
耄	-13971
聪	-13972
胝	-13973
胱	-13974
脏	-13975
脧	-13976
腊	-13977
腥	-13978
舳	-13979
芚	-13980
芾	-13981
莪	-13982
蓀	-13983
蔗	-13984
蔿	-13985
藎	-13986
虑	-13987
虻	-13988
蛯	-13989
蜕	-13990
裒	-13991
褊	-13992
褌	-13993
襁	-13994
諝	-13995
贯	-13996
赭	-13997
踠	-13998
軛	-13999
輟	-14000
逈	-14001
逹	-14002
郴	-14003
醞	-14004
醮	-14005
鉋	-14006
链	-14007
閎	-14008
闈	-14009
饿	-14010
馍	-14011
騏	-14012
驄	-14013
髷	-14014
魃	-14015
鯢	-14016
鱣	-14017
鷸	-14018
黌	-14019
齦	-14020
龖	-14021
ꦔ	-14022
ꦗ	-14023
ꦪ	-14024
꧉	-14025
갅	-14026
갋	-14027
곖	-14028
궷	-14029
귝	-14030
귭	-14031
꾾	-14032
낲	-14033
넑	-14034
눟	-14035
늇	-14036
닑	-14037
뎦	-14038
뙨	-14039
랓	-14040
럤	-14041
렫	-14042
릘	-14043
맇	-14044
맼	-14045
먾	-14046
뭵	-14047
밡	-14048
벟	-14049
빩	-14050
빪	-14051
뺼	-14052
뿛	-14053
뿨	-14054
섊	-14055
솹	-14056
숖	-14057
쉨	-14058
슮	-14059
쌱	-14060
쌸	-14061
썜	-14062
쐑	-14063
윢	-14064
죰	-14065
줼	-14066
짆	-14067
쯜	-14068
찯	-14069
쵮	-14070
춛	-14071
텸	-14072
햩	-14073
홅	-14074
🇹	-14075
🌀	-14076
🌶	-14077
🍜	-14078
🐣	-14079
🐺	-14080
👌	-14081
📔	-14082
📜	-14083
📬	-14084
🔦	-14085
😄	-14086
😱	-14087
Ï	-14088
Õ	-14089
Ą	-14090
Ń	-14091
Ţ	-14092
Ǹ	-14093
ɧ	-14094
Ύ	-14095
Ϙ	-14096
Բ	-14097
Լ	-14098
ձ	-14099
ښ	-14100
۷	-14101
ܦ	-14102
ओ	-14103
আ	-14104
ਬ	-14105
ਯ	-14106
ക	-14107
ය	-14108
ල	-14109
ෆ	-14110
ທ	-14111
ມ	-14112
ཏ	-14113
ཟ	-14114
္	-14115
ᄰ	-14116
ᄾ	-14117
ᅶ	-14118
ᆄ	-14119
ᆾ	-14120
ᇹ	-14121
ህ	-14122
ክ	-14123
ዳ	-14124
ᓗ	-14125
ᛋ	-14126
ᠱ	-14127
ᴇ	-14128
ẫ	-14129
ẵ	-14130
ᾳ	-14131
‣	-14132
⊢	-14133
⋮	-14134
⌥	-14135
╭	-14136
☕	-14137
☩	-14138
♔	-14139
⚐	-14140
⛱	-14141
✚	-14142
⣠	-14143
ⲓ	-14144
ⵛ	-14145
ⵣ	-14146
⺼	-14147
㠱	-14148
䘒	-14149
丵	-14150
乛	-14151
亰	-14152
俉	-14153
冽	-14154
剱	-14155
劓	-14156
哄	-14157
唧	-14158
啸	-14159
嘏	-14160
嘱	-14161
噤	-14162
嚎	-14163
囟	-14164
埵	-14165
塤	-14166
壳	-14167
夸	-14168
姝	-14169
娣	-14170
嬋	-14171
尛	-14172
尢	-14173
崴	-14174
嵜	-14175
嶲	-14176
帀	-14177
帜	-14178
弍	-14179
忒	-14180
忤	-14181
忧	-14182
恚	-14183
愔	-14184
憺	-14185
懒	-14186
懽	-14187
戔	-14188
戩	-14189
拮	-14190
揣	-14191
揶	-14192
撩	-14193
撹	-14194
擘	-14195
攜	-14196
敘	-14197
晞	-14198
朏	-14199
柹	-14200
框	-14201
桎	-14202
梃	-14203
梆	-14204
梛	-14205
楕	-14206
榘	-14207
榭	-14208
櫶	-14209
沄	-14210
沦	-14211
泠	-14212
淆	-14213
淖	-14214
淦	-14215
渫	-14216
潦	-14217
濵	-14218
璆	-14219
璥	-14220
璩	-14221
甬	-14222
痤	-14223
瘀	-14224
盌	-14225
盱	-14226
睫	-14227
硃	-14228
磚	-14229
祧	-14230
穌	-14231
窃	-14232
窖	-14233
笼	-14234
篡	-14235
篩	-14236
籥	-14237
紵	-14238
繃	-14239
繻	-14240
纔	-14241
绘	-14242
绯	-14243
翆	-14244
聂	-14245
肄	-14246
膊	-14247
臈	-14248
茘	-14249
荳	-14250
菑	-14251
蒻	-14252
蕆	-14253
蕗	-14254
蜓	-14255
蜩	-14256
袤	-14257
覿	-14258
觚	-14259
誑	-14260
諛	-14261
譓	-14262
译	-14263
谐	-14264
谭	-14265
豨	-14266
豳	-14267
赠	-14268
踴	-14269
蹊	-14270
轤	-14271
轴	-14272
逊	-14273
遤	-14274
鄯	-14275
銛	-14276
鋌	-14277
錡	-14278
鍘	-14279
鏗	-14280
鑊	-14281
鑰	-14282
钧	-14283
铜	-14284
闐	-14285
靓	-14286
鞆	-14287
鞞	-14288
飓	-14289
饮	-14290
饶	-14291
驫	-14292
驰	-14293
髦	-14294
鬩	-14295
魴	-14296
鮓	-14297
鯊	-14298
鱓	-14299
鲸	-14300
鴬	-14301
鵞	-14302
鷽	-14303
黠	-14304
ꥼ	-14305
ꦧ	-14306
겞	-14307
곸	-14308
곺	-14309
괃	-14310
깓	-14311
뀀	-14312
끨	-14313
넠	-14314
놯	-14315
뇟	-14316
눨	-14317
뒓	-14318
뒝	-14319
딯	-14320
똡	-14321
뛟	-14322
랋	-14323
뢈	-14324
뢨	-14325
뤈	-14326
뤗	-14327
멌	-14328
멑	-14329
몔	-14330
믂	-14331
믇	-14332
믤	-14333
믯	-14334
밂	-14335
벎	-14336
뵷	-14337
뷥	-14338
삱	-14339
셂	-14340
슸	-14341
싢	-14342
싦	-14343
쎗	-14344
쎵	-14345
쓺	-14346
씉	-14347
옰	-14348
옽	-14349
왂	-14350
웉	-14351
웊	-14352
웷	-14353
읙	-14354
읪	-14355
좊	-14356
좟	-14357
쥉	-14358
쩅	-14359
쩟	-14360
쪤	-14361
쫩	-14362
쫭	-14363
쭀	-14364
촷	-14365
춣	-14366
춸	-14367
췤	-14368
퀙	-14369
킸	-14370
튓	-14371
폯	-14372
풿	-14373
햋	-14374
햙	-14375
횄	-14376
	-14377
	-14378
𐤍	-14379
𒀭	-14380
🇬	-14381
🇳	-14382
🌞	-14383
🍙	-14384
🍭	-14385
🎡	-14386
🎼	-14387
🐿	-14388
👁	-14389
👪	-14390
🔔	-14391
😐	-14392
😥	-14393
🤍	-14394
🧡	-14395
Ę	-14396
Ơ	-14397
Ǒ	-14398
Ǔ	-14399
Ƿ	-14400
ʚ	-14401
ʞ	-14402
ΐ	-14403
ϛ	-14404
Ϝ	-14405
ѧ	-14406
ѫ	-14407
ҡ	-14408
Կ	-14409
օ	-14410
ڠ	-14411
ܚ	-14412
ܛ	-14413
ङ	-14414
ৡ	-14415
ਅ	-14416
ਵ	-14417
ஜ	-14418
ஞ	-14419
౪	-14420
ಠ	-14421
ು	-14422
ฑ	-14423
๋	-14424
๒	-14425
ເ	-14426
ྷ	-14427
ှ	-14428
ᄜ	-14429
ᄼ	-14430
ᅐ	-14431
ᅞ	-14432
ᆋ	-14433
ᇑ	-14434
ᇢ	-14435
ተ	-14436
ធ	-14437
ភ	-14438
ḱ	-14439
ṓ	-14440
ẻ	-14441
₱	-14442
↵	-14443
⊘	-14444
⓶	-14445
╰	-14446
▵	-14447
♋	-14448
♎	-14449
⛴	-14450
❛	-14451
➀	-14452
⣦	-14453
ⲣ	-14454
ⴳ	-14455
⺬	-14456
⺭	-14457
〠	-14458
〱	-14459
ㄫ	-14460
ㄬ	-14461
㑖	-14462
丢	-14463
丫	-14464
俁	-14465
倹	-14466
偁	-14467
凳	-14468
剄	-14469
剎	-14470
劲	-14471
勖	-14472
勻	-14473
匱	-14474
卹	-14475
厌	-14476
厮	-14477
哼	-14478
喔	-14479
喱	-14480
喷	-14481
嘢	-14482
噜	-14483
囮	-14484
圥	-14485
坝	-14486
埕	-14487
埶	-14488
堣	-14489
媼	-14490
孿	-14491
寘	-14492
屐	-14493
屡	-14494
嵇	-14495
嶇	-14496
巂	-14497
巅	-14498
巩	-14499
幄	-14500
廵	-14501
弯	-14502
悚	-14503
慝	-14504
憮	-14505
扯	-14506
掎	-14507
擂	-14508
旡	-14509
昜	-14510
昪	-14511
昵	-14512
晤	-14513
朞	-14514
枘	-14515
栻	-14516
梏	-14517
梱	-14518
榨	-14519
槁	-14520
氛	-14521
沚	-14522
洶	-14523
浓	-14524
淥	-14525
湃	-14526
湔	-14527
湳	-14528
漓	-14529
澂	-14530
澧	-14531
瀰	-14532
烂	-14533
煊	-14534
煐	-14535
熈	-14536
熨	-14537
熺	-14538
燗	-14539
爨	-14540
牂	-14541
犂	-14542
狌	-14543
狢	-14544
猬	-14545
獠	-14546
獪	-14547
珚	-14548
琇	-14549
琊	-14550
瓿	-14551
瘾	-14552
癇	-14553
癬	-14554
眇	-14555
硕	-14556
碾	-14557
禸	-14558
秊	-14559
竃	-14560
笳	-14561
筹	-14562
篪	-14563
簸	-14564
糯	-14565
糹	-14566
紲	-14567
绅	-14568
罽	-14569
翽	-14570
耻	-14571
舙	-14572
芟	-14573
苯	-14574
茁	-14575
荑	-14576
莆	-14577
莏	-14578
菀	-14579
萸	-14580
蓴	-14581
蕓	-14582
薏	-14583
虬	-14584
虵	-14585
虺	-14586
蚓	-14587
蛞	-14588
衲	-14589
誂	-14590
諂	-14591
諳	-14592
譁	-14593
谱	-14594
賎	-14595
贋	-14596
踞	-14597
蹉	-14598
躡	-14599
軆	-14600
轂	-14601
辖	-14602
郗	-14603
鐃	-14604
鑴	-14605
钉	-14606
閠	-14607
閬	-14608
闞	-14609
阡	-14610
隂	-14611
页	-14612
颗	-14613
颺	-14614
飠	-14615
馘	-14616
駰	-14617
驊	-14618
骅	-14619
骓	-14620
骰	-14621
鬃	-14622
鯀	-14623
鰕	-14624
鰤	-14625
鱷	-14626
鱸	-14627
鴌	-14628
鴞	-14629
黼	-14630
鼇	-14631
ꠑ	-14632
ꦂ	-14633
ꦒ	-14634
ꦢ	-14635
곀	-14636
곢	-14637
궘	-14638
궭	-14639
긩	-14640
깢	-14641
꺗	-14642
꼻	-14643
꾁	-14644
꿱	-14645
뀍	-14646
뀵	-14647
끤	-14648
끾	-14649
녬	-14650
놐	-14651
뉭	-14652
늕	-14653
닰	-14654
뎄	-14655
뎈	-14656
딈	-14657
딿	-14658
똰	-14659
뜐	-14660
뜛	-14661
랒	-14662
룱	-14663
뤁	-14664
릠	-14665
먫	-14666
몼	-14667
뫀	-14668
뫅	-14669
뭌	-14670
뮉	-14671
밢	-14672
벑	-14673
벩	-14674
볅	-14675
뷩	-14676
빂	-14677
뻆	-14678
뼸	-14679
뾲	-14680
쁐	-14681
삒	-14682
삲	-14683
삸	-14684
삾	-14685
샠	-14686
섢	-14687
셊	-14688
쇡	-14689
슅	-14690
썛	-14691
쑌	-14692
얅	-14693
옪	-14694
웓	-14695
윁	-14696
읨	-14697
잞	-14698
쟃	-14699
졎	-14700
쬼	-14701
쵭	-14702
춱	-14703
췽	-14704
칢	-14705
캏	-14706
캽	-14707
쿔	-14708
쿗	-14709
톧	-14710
퉅	-14711
폕	-14712
퓅	-14713
햫	-14714
헭	-14715
헾	-14716
횩	-14717
훜	-14718
	-14719
𐌹	-14720
𐤀	-14721
𛀁	-14722
🇦	-14723
🌻	-14724
🎃	-14725
🎅	-14726
🎙	-14727
🐢	-14728
🐤	-14729
🐧	-14730
👚	-14731
💌	-14732
💫	-14733
💿	-14734
📢	-14735
📻	-14736
📼	-14737
🔤	-14738
🗣	-14739
😗	-14740
😮	-14741
🠖	-14742
🡒	-14743
🤣	-14744
🧚	-14745
Ċ	-14746
ď	-14747
ǖ	-14748
ǘ	-14749
ǣ	-14750
͵	-14751
Ђ	-14752
ԓ	-14753
։	-14754
װ	-14755
ۆ	-14756
۸	-14757
۹	-14758
ܗ	-14759
ਜ	-14760
ੈ	-14761
ੱ	-14762
ષ	-14763
ஸ	-14764
ఆ	-14765
ౌ	-14766
ಕ	-14767
ര	-14768
ຊ	-14769
ດ	-14770
ཤ	-14771
ཨ	-14772
ᄮ	-14773
ᅁ	-14774
ᅊ	-14775
ሰ	-14776
ባ	-14777
ᐅ	-14778
ᒃ	-14779
ᛖ	-14780
ះ	-14781
ṗ	-14782
ẖ	-14783
ἥ	-14784
ἵ	-14785
ὦ	-14786
ῑ	-14787
⁣	-14788
∋	-14789
≅	-14790
┳	-14791
═	-14792
☛	-14793
☮	-14794
☼	-14795
⛷	-14796
⠌	-14797
⠢	-14798
⠺	-14799
⡇	-14800
⺝	-14801
〞	-14802
㶂	-14803
仑	-14804
侄	-14805
侹	-14806
俅	-14807
俐	-14808
傒	-14809
刖	-14810
厼	-14811
咚	-14812
哔	-14813
唉	-14814
唭	-14815
啲	-14816
喺	-14817
嗽	-14818
塏	-14819
墉	-14820
夹	-14821
娡	-14822
娩	-14823
婺	-14824
嬛	-14825
孥	-14826
宠	-14827
尝	-14828
岂	-14829
峩	-14830
嵆	-14831
嶝	-14832
帼	-14833
幗	-14834
庐	-14835
怛	-14836
惘	-14837
愃	-14838
愤	-14839
慥	-14840
慫	-14841
戕	-14842
戢	-14843
撕	-14844
敝	-14845
昖	-14846
暆	-14847
曁	-14848
朙	-14849
枣	-14850
档	-14851
桿	-14852
楙	-14853
欖	-14854
欹	-14855
殂	-14856
洼	-14857
涡	-14858
澠	-14859
澶	-14860
濑	-14861
灋	-14862
焕	-14863
煨	-14864
燚	-14865
珌	-14866
璫	-14867
畷	-14868
瘁	-14869
瞎	-14870
瞽	-14871
矗	-14872
砌	-14873
碏	-14874
碕	-14875
碭	-14876
磧	-14877
礒	-14878
秕	-14879
秣	-14880
秺	-14881
穉	-14882
筴	-14883
筷	-14884
粍	-14885
紜	-14886
綢	-14887
緄	-14888
縢	-14889
绚	-14890
绥	-14891
缚	-14892
翀	-14893
胛	-14894
臑	-14895
臠	-14896
芊	-14897
芿	-14898
苡	-14899
茯	-14900
葩	-14901
葷	-14902
薉	-14903
薜	-14904
蘄	-14905
蚁	-14906
蝓	-14907
蝟	-14908
螻	-14909
蟜	-14910
蟷	-14911
蠔	-14912
袪	-14913
褄	-14914
訌	-14915
譎	-14916
谅	-14917
贛	-14918
躋	-14919
轘	-14920
逻	-14921
遝	-14922
邙	-14923
郫	-14924
鄀	-14925
鄆	-14926
釼	-14927
鉏	-14928
鑣	-14929
铠	-14930
锥	-14931
閆	-14932
闌	-14933
阯	-14934
靚	-14935
韬	-14936
頉	-14937
頫	-14938
頽	-14939
餒	-14940
饺	-14941
駑	-14942
髢	-14943
髯	-14944
髹	-14945
鬬	-14946
鶚	-14947
鶫	-14948
鷦	-14949
鷯	-14950
鸕	-14951
鸛	-14952
黷	-14953
黹	-14954
ꙑ	-14955
ꙗ	-14956
ꜥ	-14957
걿	-14958
겂	-14959
굠	-14960
궅	-14961
깤	-14962
꺌	-14963
꼉	-14964
꿜	-14965
뀬	-14966
끍	-14967
넽	-14968
녝	-14969
뇡	-14970
눤	-14971
늚	-14972
늰	-14973
댬	-14974
뎟	-14975
뎧	-14976
됄	-14977
됵	-14978
됼	-14979
둪	-14980
둰	-14981
뒁	-14982
듷	-14983
땇	-14984
똇	-14985
똙	-14986
뚊	-14987
뚷	-14988
뜳	-14989
렣	-14990
롫	-14991
뤨	-14992
륽	-14993
릌	-14994
릔	-14995
맂	-14996
맒	-14997
몾	-14998
뫈	-14999
뮛	-15000
밗	-15001
뱓	-15002
봃	-15003
붖	-15004
뼌	-15005
뽱	-15006
뿠	-15007
쀽	-15008
쁴	-15009
섟	-15010
섻	-15011
셟	-15012
싺	-15013
쌂	-15014
쌞	-15015
쎴	-15016
쐤	-15017
쑉	-15018
쑛	-15019
쒠	-15020
씤	-15021
얂	-15022
읐	-15023
잚	-15024
젇	-15025
젙	-15026
졤	-15027
졩	-15028
줃	-15029
줆	-15030
줙	-15031
줠	-15032
즹	-15033
짛	-15034
쨧	-15035
쩗	-15036
쫴	-15037
쬠	-15038
쬰	-15039
쭛	-15040
쯍	-15041
쯪	-15042
첮	-15043
쳿	-15044
춴	-15045
췼	-15046
캆	-15047
탏	-15048
퍗	-15049
퍠	-15050
펵	-15051
퐅	-15052
퐉	-15053
푤	-15054
풒	-15055
픤	-15056
핝	-15057
핢	-15058
홛	-15059
횞	-15060
훛	-15061
훱	-15062
흟	-15063
힗	-15064
ힵ	-15065
𐌰	-15066
𐎧	-15067
𐎼	-15068
𐤄	-15069
𐤅	-15070
𐤇	-15071
𐤏	-15072
𐤕	-15073
𒀀	-15074
🅐	-15075
🇫	-15076
🇮	-15077
🌰	-15078
🍂	-15079
🍋	-15080
🍓	-15081
🍵	-15082
🎧	-15083
🏹	-15084
🐙	-15085
🐬	-15086
🐻	-15087
👟	-15088
👽	-15089
💞	-15090
💤	-15091
💨	-15092
🔻	-15093
🕆	-15094
🙌	-15095
🦄	-15096
𠘧	-15097
𥙷	-15098
𩅦	-15099
Ď	-15100
Ġ	-15101
Ģ	-15102
Ĥ	-15103
Ħ	-15104
Ĵ	-15105
ĸ	-15106
ĺ	-15107
Ň	-15108
ʢ	-15109
˕	-15110
˦	-15111
˩	-15112
Ή	-15113
Ϡ	-15114
Џ	-15115
ѳ	-15116
ґ	-15117
ӈ	-15118
Դ	-15119
Թ	-15120
ժ	-15121
־	-15122
۴	-15123
ܣ	-15124
ܩ	-15125
ऊ	-15126
ং	-15127
ఉ	-15128
థ	-15129
ಸ	-15130
ಿ	-15131
න	-15132
ප	-15133
ස	-15134
ී	-15135
ປ	-15136
ົ	-15137
ຽ	-15138
ཉ	-15139
ཙ	-15140
ཛ	-15141
ྡ	-15142
ွ	-15143
ᄽ	-15144
ᆅ	-15145
ᇣ	-15146
ᇯ	-15147
ᐣ	-15148
ᑭ	-15149
ᑲ	-15150
ᓯ	-15151
ᔭ	-15152
ᕐ	-15153
ᕗ	-15154
ᖃ	-15155
ᛟ	-15156
ើ	-15157
ៃ	-15158
ᴀ	-15159
Ḿ	-15160
Ṭ	-15161
ẑ	-15162
ẳ	-15163
Ẽ	-15164
Ἔ	-15165
ἠ	-15166
ὗ	-15167
₦	-15168
⇢	-15169
⎪	-15170
╬	-15171
◜	-15172
◝	-15173
☃	-15174
♾	-15175
✹	-15176
❉	-15177
➂	-15178
⟁	-15179
⟶	-15180
⠱	-15181
⠴	-15182
⠼	-15183
⬤	-15184
ⴷ	-15185
㐬	-15186
㗎	-15187
㦃	-15188
㭗	-15189
㮈	-15190
㺚	-15191
䟽	-15192
䬌	-15193
丂	-15194
乷	-15195
亙	-15196
佖	-15197
侏	-15198
倝	-15199
偎	-15200
儔	-15201
凞	-15202
劝	-15203
厝	-15204
吵	-15205
咍	-15206
噹	-15207
嚆	-15208
嚟	-15209
嚢	-15210
嚬	-15211
坼	-15212
堇	-15213
堞	-15214
墊	-15215
妆	-15216
妝	-15217
妸	-15218
嬖	-15219
孱	-15220
孶	-15221
寗	-15222
尧	-15223
尨	-15224
岉	-15225
嵓	-15226
嶄	-15227
廁	-15228
廨	-15229
彀	-15230
悵	-15231
悽	-15232
惯	-15233
慍	-15234
扞	-15235
抚	-15236
挈	-15237
挡	-15238
捡	-15239
掇	-15240
擽	-15241
攤	-15242
旆	-15243
旛	-15244
晖	-15245
晰	-15246
暲	-15247
曮	-15248
枹	-15249
柜	-15250
橄	-15251
檍	-15252
檗	-15253
櫝	-15254
殄	-15255
殫	-15256
氹	-15257
汧	-15258
汭	-15259
浑	-15260
浥	-15261
淏	-15262
淐	-15263
淤	-15264
渻	-15265
潚	-15266
瀞	-15267
瀦	-15268
炡	-15269
炷	-15270
烬	-15271
焄	-15272
犴	-15273
獴	-15274
玁	-15275
玘	-15276
玢	-15277
玦	-15278
玺	-15279
珲	-15280
瑊	-15281
瓈	-15282
甩	-15283
疚	-15284
瘢	-15285
皥	-15286
盍	-15287
眨	-15288
砺	-15289
碳	-15290
磙	-15291
禫	-15292
秫	-15293
窘	-15294
窿	-15295
竢	-15296
竸	-15297
笄	-15298
笵	-15299
粳	-15300
粽	-15301
粿	-15302
糀	-15303
糺	-15304
絜	-15305
绕	-15306
绩	-15307
罄	-15308
罘	-15309
臯	-15310
舆	-15311
舡	-15312
茴	-15313
莅	-15314
莋	-15315
菘	-15316
菡	-15317
葅	-15318
蒟	-15319
蓂	-15320
蓟	-15321
蕈	-15322
蘅	-15323
虀	-15324
蚪	-15325
蜒	-15326
蜷	-15327
蝌	-15328
裤	-15329
觥	-15330
諲	-15331
謇	-15332
譫	-15333
详	-15334
谯	-15335
谺	-15336
账	-15337
趕	-15338
踩	-15339
辠	-15340
迌	-15341
逖	-15342
遨	-15343
遶	-15344
酺	-15345
鉃	-15346
鏻	-15347
鐺	-15348
鑌	-15349
鑲	-15350
钰	-15351
铛	-15352
销	-15353
雟	-15354
雳	-15355
霎	-15356
頲	-15357
饂	-15358
驂	-15359
驭	-15360
髴	-15361
鬣	-15362
鵼	-15363
鶩	-15364
麃	-15365
鼯	-15366
齣	-15367
ꙮ	-15368
꧈	-15369
걉	-15370
걑	-15371
겓	-15372
궛	-15373
귷	-15374
깇	-15375
꼍	-15376
꽅	-15377
꽆	-15378
꽇	-15379
꽊	-15380
꿿	-15381
낔	-15382
넚	-15383
넡	-15384
넫	-15385
녛	-15386
놕	-15387
늼	-15388
댯	-15389
덿	-15390
됑	-15391
됒	-15392
됙	-15393
딷	-15394
딹	-15395
뗃	-15396
뗠	-15397
뗬	-15398
똫	-15399
똵	-15400
뜅	-15401
랎	-15402
랱	-15403
롵	-15404
뤀	-15405
륷	-15406
릊	-15407
릋	-15408
멇	-15409
뫌	-15410
뭴	-15411
뮝	-15412
믘	-15413
믙	-15414
밠	-15415
밮	-15416
뱕	-15417
뱤	-15418
벆	-15419
벝	-15420
볱	-15421
봏	-15422
뵥	-15423
븉	-15424
븘	-15425
빆	-15426
빜	-15427
뼜	-15428
뽤	-15429
뿎	-15430
뿓	-15431
뿕	-15432
쀄	-15433
쇱	-15434
썫	-15435
썭	-15436
쏝	-15437
쒼	-15438
쓉	-15439
쓲	-15440
씺	-15441
얿	-15442
엯	-15443
엺	-15444
옞	-15445
옧	-15446
왰	-15447
욨	-15448
웗	-15449
윟	-15450
잩	-15451
쟜	-15452
쟠	-15453
졐	-15454
졧	-15455
즣	-15456
쨴	-15457
쩖	-15458
쪈	-15459
쬭	-15460
쭸	-15461
찭	-15462
챺	-15463
쳗	-15464
촞	-15465
츱	-15466
칞	-15467
칟	-15468
컈	-15469
쾈	-15470
큮	-15471
킢	-15472
탘	-15473
탣	-15474
텊	-15475
톌	-15476
퇄	-15477
틂	-15478
틧	-15479
폘	-15480
풮	-15481
풾	-15482
퓍	-15483
퓜	-15484
퓝	-15485
퓹	-15486
픖	-15487
핞	-15488
헗	-15489
혯	-15490
훋	-15491
힒	-15492
ힳ	-15493
	-15494
	-15495
𐤒	-15496
𓈖	-15497
🇱	-15498
🌎	-15499
🍁	-15500
🍎	-15501
🍗	-15502
🍞	-15503
🍪	-15504
🏅	-15505
💐	-15506
💝	-15507
💣	-15508
📌	-15509
📷	-15510
🔁	-15511
🔎	-15512
🖑	-15513
😃	-15514
😅	-15515
😋	-15516
😛	-15517
🚌	-15518
🤩	-15519
🤸	-15520
🦝	-15521
𩸽	-15522
¦	-15523
ċ	-15524
ģ	-15525
ķ	-15526
ŗ	-15527
Ǎ	-15528
Ǐ	-15529
ȝ	-15530
ʛ	-15531
˂	-15532
˃	-15533
˞	-15534
Њ	-15535
Ў	-15536
Ѧ	-15537
ҫ	-15538
ӧ	-15539
Ի	-15540
Շ	-15541
Ո	-15542
Ք	-15543
՞	-15544
ճ	-15545
֫	-15546
ֻ	-15547
׃	-15548
٥	-15549
ړ	-15550
ګ	-15551
ێ	-15552
ढ	-15553
જ	-15554
થ	-15555
હ	-15556
ૉ	-15557
૮	-15558
ఖ	-15559
ష	-15560
ె	-15561
ವ	-15562
ೂ	-15563
ං	-15564
ඳ	-15565
ฅ	-15566
ฆ	-15567
ບ	-15568
ຫ	-15569
ອ	-15570
ໄ	-15571
່	-15572
ໍ	-15573
ཅ	-15574
ྤ	-15575
ᅔ	-15576
ᆌ	-15577
ᇀ	-15578
ᇡ	-15579
ᓄ	-15580
ᓕ	-15581
ᴥ	-15582
Ṳ	-15583
ἅ	-15584
Ἕ	-15585
Ἠ	-15586
Ἡ	-15587
Ἴ	-15588
ὤ	-15589
₧	-15590
₺	-15591
▢	-15592
◠	-15593
☳	-15594
☵	-15595
♃	-15596
✍	-15597
✤	-15598
❖	-15599
➌	-15600
⠆	-15601
⠤	-15602
⠹	-15603
⡟	-15604
⣆	-15605
⣼	-15606
ⴻ	-15607
ⴼ	-15608
ヷ	-15609
ㇽ	-15610
㐅	-15611
㑲	-15612
㢱	-15613
㣴	-15614
䨻	-15615
䴒	-15616
乁	-15617
亽	-15618
仡	-15619
侙	-15620
俥	-15621
傌	-15622
傔	-15623
储	-15624
冼	-15625
删	-15626
哋	-15627
嘈	-15628
嚭	-15629
囦	-15630
垃	-15631
埸	-15632
堃	-15633
夗	-15634
妒	-15635
媄	-15636
嫋	-15637
崂	-15638
崐	-15639
嶸	-15640
帊	-15641
帨	-15642
幂	-15643
幔	-15644
幞	-15645
弖	-15646
彅	-15647
憍	-15648
憨	-15649
扭	-15650
拊	-15651
挐	-15652
捴	-15653
揄	-15654
摽	-15655
擄	-15656
擋	-15657
擱	-15658
晫	-15659
晸	-15660
曔	-15661
曩	-15662
杙	-15663
柝	-15664
柢	-15665
棡	-15666
椴	-15667
楛	-15668
槞	-15669
樅	-15670
樾	-15671
橈	-15672
櫨	-15673
殐	-15674
汙	-15675
泯	-15676
浬	-15677
涷	-15678
淩	-15679
渗	-15680
溵	-15681
漦	-15682
漩	-15683
澜	-15684
濺	-15685
炏	-15686
炜	-15687
焞	-15688
牕	-15689
犟	-15690
犼	-15691
玥	-15692
琠	-15693
瑒	-15694
璵	-15695
甞	-15696
畤	-15697
痹	-15698
癭	-15699
皀	-15700
皝	-15701
皞	-15702
眄	-15703
眙	-15704
眚	-15705
硤	-15706
礡	-15707
礩	-15708
秬	-15709
筅	-15710
筬	-15711
筱	-15712
籓	-15713
糴	-15714
糶	-15715
紈	-15716
絖	-15717
綧	-15718
纲	-15719
绒	-15720
缨	-15721
缪	-15722
罇	-15723
羘	-15724
翘	-15725
翥	-15726
耋	-15727
耔	-15728
肸	-15729
胭	-15730
胳	-15731
胶	-15732
腓	-15733
膈	-15734
臽	-15735
艰	-15736
苣	-15737
荅	-15738
荐	-15739
莚	-15740
菰	-15741
菸	-15742
萁	-15743
葂	-15744
葍	-15745
蔞	-15746
薈	-15747
蘖	-15748
蘧	-15749
蘼	-15750
虡	-15751
蚯	-15752
蛻	-15753
蜍	-15754
蜡	-15755
蝃	-15756
衄	-15757
衽	-15758
褸	-15759
襃	-15760
覀	-15761
觅	-15762
觿	-15763
訁	-15764
誄	-15765
誧	-15766
諌	-15767
謊	-15768
譔	-15769
讋	-15770
诅	-15771
谕	-15772
谣	-15773
賡	-15774
赳	-15775
踈	-15776
踧	-15777
躺	-15778
輾	-15779
辩	-15780
迢	-15781
逬	-15782
遘	-15783
遴	-15784
郅	-15785
鄄	-15786
鄔	-15787
鄞	-15788
酣	-15789
釒	-15790
鉴	-15791
銕	-15792
鋲	-15793
錤	-15794
鍪	-15795
鏘	-15796
鑞	-15797
钅	-15798
钛	-15799
閇	-15800
閽	-15801
阅	-15802
陔	-15803
陨	-15804
雚	-15805
霾	-15806
頵	-15807
颈	-15808
额	-15809
飆	-15810
飫	-15811
餛	-15812
饱	-15813
駮	-15814
騄	-15815
騑	-15816
騾	-15817
骂	-15818
骚	-15819
魈	-15820
鰓	-15821
鰥	-15822
鳰	-15823
鹗	-15824
麰	-15825
黶	-15826
ꥪ	-15827
ꥫ	-15828
ꦃ	-15829
걩	-15830
괐	-15831
귪	-15832
귺	-15833
귾	-15834
긎	-15835
긐	-15836
긮	-15837
긲	-15838
깂	-15839
꺃	-15840
껃	-15841
껵	-15842
꿑	-15843
꿻	-15844
뀻	-15845
끋	-15846
녃	-15847
놑	-15848
눚	-15849
눽	-15850
뉫	-15851
닧	-15852
닲	-15853
댛	-15854
댼	-15855
뎋	-15856
돜	-15857
됌	-15858
둙	-15859
둫	-15860
뒿	-15861
듹	-15862
땈	-15863
땛	-15864
똻	-15865
뚞	-15866
띙	-15867
럔	-15868
렢	-15869
롁	-15870
룃	-15871
뤙	-15872
뤡	-15873
맓	-15874
맔	-15875
먑	-15876
멞	-15877
멮	-15878
몁	-15879
몊	-15880
묗	-15881
믬	-15882
밒	-15883
밲	-15884
뱨	-15885
벸	-15886
벻	-15887
봆	-15888
봈	-15889
뷱	-15890
븁	-15891
뻄	-15892
뻼	-15893
뼬	-15894
뽥	-15895
뿩	-15896
쁥	-15897
섲	-15898
셐	-15899
솢	-15900
솤	-15901
싞	-15902
쌵	-15903
쓋	-15904
씔	-15905
씝	-15906
씪	-15907
앑	-15908
앸	-15909
앾	-15910
엋	-15911
엒	-15912
엓	-15913
엜	-15914
엩	-15915
옦	-15916
옲	-15917
욉	-15918
욣	-15919
욲	-15920
웇	-15921
웚	-15922
웛	-15923
웥	-15924
웧	-15925
윹	-15926
읾	-15927
잀	-15928
잧	-15929
젗	-15930
젚	-15931
젲	-15932
졜	-15933
줒	-15934
줮	-15935
줵	-15936
즥	-15937
짒	-15938
쫅	-15939
쬈	-15940
쬤	-15941
쬲	-15942
쭊	-15943
찱	-15944
챞	-15945
첡	-15946
첲	-15947
쳈	-15948
츩	-15949
칽	-15950
캋	-15951
캵	-15952
컿	-15953
켝	-15954
콫	-15955
쾔	-15956
큟	-15957
큪	-15958
탖	-15959
턘	-15960
텥	-15961
톩	-15962
툵	-15963
틜	-15964
팉	-15965
폅	-15966
폮	-15967
푿	-15968
풑	-15969
풜	-15970
픎	-15971
헡	-15972
홝	-15973
홯	-15974
횦	-15975
훳	-15976
흼	-15977
ퟄ	-15978
ퟩ	-15979
𐍃	-15980
𐎢	-15981
𐎶	-15982
𐏐	-15983
𐤔	-15984
𒆠	-15985
𓇋	-15986
𝄫	-15987
🇩	-15988
🌷	-15989
🍦	-15990
🍱	-15991
🎸	-15992
🏽	-15993
🏿	-15994
🐝	-15995
🐭	-15996
💘	-15997
🔘	-15998
🔨	-15999
🔫	-16000
🔳	-16001
😳	-16002
😻	-16003
🚀	-16004
🤭	-16005
🥴	-16006
🦌	-16007
🧸	-16008
𡸫	-16009
𤪠	-16010
𨑨	-16011
󠁍	-16012
􄦤	-16013
Ľ	-16014
ŷ	-16015
ƭ	-16016
ǰ	-16017
ɠ	-16018
ʅ	-16019
˖	-16020
Ї	-16021
Љ	-16022
Ѣ	-16023
җ	-16024
Ҷ	-16025
Զ	-16026
ֽ	-16027
ځ	-16028
ۀ	-16029
ܓ	-16030
ݣ	-16031
ާ	-16032
ި	-16033
॑	-16034
অ	-16035
উ	-16036
এ	-16037
ਂ	-16038
ਧ	-16039
ધ	-16040
િ	-16041
ఈ	-16042
ಜ	-16043
ാ	-16044
ി	-16045
ද	-16046
ම	-16047
ව	-16048
๕	-16049
ັ	-16050
ဆ	-16051
ထ	-16052
ᅏ	-16053
ᅕ	-16054
ᆛ	-16055
ᆟ	-16056
ᇎ	-16057
ሪ	-16058
ሮ	-16059
ታ	-16060
ከ	-16061
ዘ	-16062
ጿ	-16063
ᐛ	-16064
ᑐ	-16065
ᒥ	-16066
ᖕ	-16067
᙮	-16068
ᚨ	-16069
ᜈ	-16070
᜔	-16071
៉	-16072
ᴉ	-16073
ᴍ	-16074
ᴜ	-16075
ᵻ	-16076
ḑ	-16077
Ḫ	-16078
Ế	-16079
ỡ	-16080
Ἁ	-16081
Ὅ	-16082
ᾷ	-16083
‮	-16084
‵	-16085
‽	-16086
₫	-16087
⇩	-16088
≖	-16089
⌐	-16090
⏩	-16091
╫	-16092
╮	-16093
►	-16094
☒	-16095
☱	-16096
☲	-16097
☶	-16098
☽	-16099
☾	-16100
♰	-16101
⚫	-16102
⛺	-16103
✛	-16104
✣	-16105
❋	-16106
➊	-16107
➋	-16108
➕	-16109
⠂	-16110
⠫	-16111
⠵	-16112
⡄	-16113
⢸	-16114
⢻	-16115
ⵄ	-16116
⺮	-16117
〲	-16118
ヸ	-16119
ヹ	-16120
ヺ	-16121
ㇷ	-16122
ㇼ	-16123
㕦	-16124
㖯	-16125
㙉	-16126
㝎	-16127
㠀	-16128
㣩	-16129
㯻	-16130
㳲	-16131
㴌	-16132
㷋	-16133
㷩	-16134
䄵	-16135
䓲	-16136
䣕	-16137
丗	-16138
丮	-16139
乽	-16140
佝	-16141
侤	-16142
俛	-16143
偿	-16144
傣	-16145
僥	-16146
儢	-16147
刄	-16148
劄	-16149
劬	-16150
匐	-16151
卝	-16152
卾	-16153
厷	-16154
吅	-16155
吓	-16156
吩	-16157
唷	-16158
啐	-16159
啚	-16160
啥	-16161
喞	-16162
喟	-16163
囷	-16164
囿	-16165
圾	-16166
坧	-16167
坫	-16168
坷	-16169
埗	-16170
婪	-16171
婬	-16172
嬅	-16173
嬈	-16174
嬙	-16175
孌	-16176
寕	-16177
屰	-16178
岗	-16179
崋	-16180
崤	-16181
嵎	-16182
嶂	-16183
嶪	-16184
庍	-16185
庻	-16186
廙	-16187
廝	-16188
彖	-16189
恊	-16190
恫	-16191
惩	-16192
惫	-16193
慊	-16194
懍	-16195
扩	-16196
拦	-16197
拨	-16198
捄	-16199
捥	-16200
捶	-16201
揪	-16202
搢	-16203
摑	-16204
撾	-16205
旂	-16206
昍	-16207
晊	-16208
晡	-16209
晢	-16210
杅	-16211
杢	-16212
枓	-16213
栮	-16214
栱	-16215
栲	-16216
桦	-16217
桴	-16218
梉	-16219
樒	-16220
樻	-16221
櫚	-16222
櫞	-16223
歛	-16224
殪	-16225
毦	-16226
沧	-16227
沰	-16228
洄	-16229
洱	-16230
浊	-16231
涑	-16232
漉	-16233
潽	-16234
澡	-16235
濰	-16236
烁	-16237
烜	-16238
烷	-16239
煲	-16240
燵	-16241
牠	-16242
犨	-16243
犸	-16244
猒	-16245
獯	-16246
玧	-16247
玮	-16248
珑	-16249
珺	-16250
瑆	-16251
瑔	-16252
瑳	-16253
畇	-16254
疣	-16255
疳	-16256
痞	-16257
皙	-16258
眜	-16259
眦	-16260
砭	-16261
硈	-16262
磅	-16263
磲	-16264
磷	-16265
礽	-16266
秃	-16267
秥	-16268
窠	-16269
竽	-16270
笭	-16271
笮	-16272
筲	-16273
篳	-16274
簗	-16275
絪	-16276
絺	-16277
綑	-16278
縝	-16279
繳	-16280
纍	-16281
纱	-16282
绫	-16283
缝	-16284
羖	-16285
翱	-16286
耙	-16287
耜	-16288
肜	-16289
肤	-16290
胁	-16291
胊	-16292
胯	-16293
腟	-16294
膛	-16295
臙	-16296
艙	-16297
艫	-16298
芑	-16299
芜	-16300
苜	-16301
荧	-16302
莺	-16303
蒨	-16304
蒺	-16305
蓁	-16306
蓆	-16307
蓿	-16308
蔔	-16309
虓	-16310
蚡	-16311
蚺	-16312
蛔	-16313
蜊	-16314
蜺	-16315
蜿	-16316
螞	-16317
螫	-16318
蟑	-16319
蠧	-16320
衜	-16321
褲	-16322
覬	-16323
觝	-16324
訾	-16325
諤	-16326
譖	-16327
讜	-16328
诀	-16329
询	-16330
貍	-16331
貔	-16332
贪	-16333
贷	-16334
踮	-16335
蹦	-16336
輳	-16337
迃	-16338
迤	-16339
遑	-16340
邺	-16341
郇	-16342
郸	-16343
鄗	-16344
鄚	-16345
鄜	-16346
酆	-16347
醪	-16348
鈀	-16349
鈏	-16350
鈹	-16351
鋈	-16352
鋩	-16353
鍤	-16354
鎯	-16355
鐚	-16356
鑪	-16357
钠	-16358
键	-16359
锻	-16360
镸	-16361
閄	-16362
閟	-16363
閦	-16364
閧	-16365
閶	-16366
霫	-16367
靛	-16368
靫	-16369
韙	-16370
飙	-16371
饐	-16372
馣	-16373
騊	-16374
驿	-16375
骗	-16376
魇	-16377
鰱	-16378
鲍	-16379
鲤	-16380
鵂	-16381
鵯	-16382
鸝	-16383
鸢	-16384
鸽	-16385
鸾	-16386
鹫	-16387
黐	-16388
黝	-16389
鼂	-16390
鼐	-16391
齾	-16392
꒳	-16393
ꦄ	-16394
갏	-16395
갮	-16396
갴	-16397
걌	-16398
겦	-16399
궹	-16400
긓	-16401
깈	-16402
깞	-16403
깪	-16404
꺕	-16405
껬	-16406
꽛	-16407
꽜	-16408
꽨	-16409
꿂	-16410
꿝	-16411
꿯	-16412
꿹	-16413
뀹	-16414
끡	-16415
낋	-16416
낣	-16417
녇	-16418
놏	-16419
뇠	-16420
뇹	-16421
뉀	-16422
늨	-16423
늩	-16424
닊	-16425
닚	-16426
닶	-16427
댘	-16428
댝	-16429
덗	-16430
덝	-16431
돓	-16432
됍	-16433
둄	-16434
둚	-16435
뒑	-16436
뒵	-16437
뒸	-16438
듑	-16439
듮	-16440
딻	-16441
떌	-16442
떣	-16443
뗸	-16444
뙁	-16445
뚄	-16446
뚕	-16447
뛃	-16448
띾	-16449
럷	-16450
렆	-16451
롥	-16452
뢀	-16453
뢇	-16454
룯	-16455
뤔	-16456
뤕	-16457
륧	-16458
릈	-16459
릾	-16460
맅	-16461
먆	-16462
먖	-16463
먘	-16464
멁	-16465
멪	-16466
몉	-16467
뫔	-16468
묑	-16469
뭃	-16470
뭋	-16471
뭩	-16472
뭭	-16473
뮥	-16474
믑	-16475
믠	-16476
뱝	-16477
뱩	-16478
뱬	-16479
벘	-16480
벾	-16481
볙	-16482
볠	-16483
볾	-16484
봁	-16485
봠	-16486
봨	-16487
봫	-16488
뵭	-16489
붒	-16490
뷍	-16491
뷹	-16492
븬	-16493
븽	-16494
빎	-16495
빏	-16496
빖	-16497
빸	-16498
뺚	-16499
뻒	-16500
뻢	-16501
뼏	-16502
뽇	-16503
뽘	-16504
뽠	-16505
뽭	-16506
뾆	-16507
뾼	-16508
쀓	-16509
쁀	-16510
쁍	-16511
쁫	-16512
삺	-16513
샂	-16514
샃	-16515
섪	-16516
섫	-16517
섺	-16518
솘	-16519
솼	-16520
쇀	-16521
쇴	-16522
쇵	-16523
숞	-16524
숧	-16525
쉪	-16526
슠	-16527
슧	-16528
슲	-16529
슺	-16530
슿	-16531
싮	-16532
쌑	-16533
쌟	-16534
썀	-16535
썎	-16536
썯	-16537
쎃	-16538
쎤	-16539
쎽	-16540
쏄	-16541
쏉	-16542
쑀	-16543
쑦	-16544
쒓	-16545
쒝	-16546
쓘	-16547
씄	-16548
씯	-16549
앃	-16550
앫	-16551
얒	-16552
엢	-16553
엻	-16554
욛	-16555
욾	-16556
웒	-16557
웕	-16558
웳	-16559
잒	-16560
잕	-16561
쟆	-16562
쟹	-16563
젆	-16564
젘	-16565
젵	-16566
좈	-16567
좜	-16568
좢	-16569
좹	-16570
죘	-16571
줕	-16572
쥇	-16573
쥌	-16574
즨	-16575
즴	-16576
짂	-16577
짮	-16578
쨟	-16579
쩁	-16580
쩧	-16581
쩩	-16582
쩸	-16583
쪕	-16584
쪗	-16585
쭃	-16586
쭵	-16587
쮹	-16588
쯘	-16589
챷	-16590
챸	-16591
첅	-16592
첯	-16593
촒	-16594
촴	-16595
촾	-16596
쵠	-16597
쵷	-16598
췁	-16599
츀	-16600
칀	-16601
칄	-16602
칻	-16603
캈	-16604
컺	-16605
켣	-16606
켮	-16607
콀	-16608
큳	-16609
큻	-16610
킳	-16611
킻	-16612
킽	-16613
탗	-16614
턔	-16615
텋	-16616
텓	-16617
퇗	-16618
퉄	-16619
퉌	-16620
퉐	-16621
퉝	-16622
퉥	-16623
틷	-16624
팗	-16625
팣	-16626
펖	-16627
풐	-16628
풩	-16629
풱	-16630
풸	-16631
픝	-16632
핚	-16633
핤	-16634
햾	-16635
혱	-16636
혿	-16637
홁	-16638
횸	-16639
훁	-16640
훃	-16641
훎	-16642
ힲ	-16643
ힺ	-16644
ퟴ	-16645
ퟹ	-16646
	-16647
︉	-16648
𐌴	-16649
𐌺	-16650
𐌿	-16651
𐎰	-16652
𐤂	-16653
𐤊	-16654
𐤑	-16655
𐰇	-16656
𒅆	-16657
𒅔	-16658
𒉿	-16659
𒋗	-16660
𒌷	-16661
𓅱	-16662
🇭	-16663
🌛	-16664
🌱	-16665
🌺	-16666
🍃	-16667
🍄	-16668
🍍	-16669
🍔	-16670
🍨	-16671
🍷	-16672
🍽	-16673
🎓	-16674
🎨	-16675
🏁	-16676
🏐	-16677
🐴	-16678
🐸	-16679
👅	-16680
👈	-16681
👗	-16682
👼	-16683
💾	-16684
🔩	-16685
🖐	-16686
😔	-16687
😼	-16688
🚧	-16689
🤘	-16690
🤦	-16691
🤨	-16692
🤷	-16693
🥕	-16694
🥚	-16695
🥳	-16696
🦍	-16697
🦖	-16698
𠀤	-16699
𠯑	-16700
𡨸	-16701
𣠶	-16702
𤥽	-16703
𦥑	-16704
Ĕ	-16705
Ő	-16706
ȳ	-16707
ʥ	-16708
ʨ	-16709
ˑ	-16710
Ώ	-16711
ҁ	-16712
Ғ	-16713
ҹ	-16714
ӄ	-16715
Ӧ	-16716
ӯ	-16717
՜	-16718
֔	-16719
֣	-16720
֤	-16721
ֱ	-16722
״	-16723
ڤ	-16724
ے	-16725
ۚ	-16726
ۣ	-16727
ެ	-16728
॒	-16729
ড	-16730
ষ	-16731
ূ	-16732
ਆ	-16733
ੂ	-16734
એ	-16735
ણ	-16736
ା	-16737
ఫ	-16738
ತ	-16739
ನ	-16740
ച	-16741
ශ	-16742
ฬ	-16743
๖	-16744
๗	-16745
ຕ	-16746
ཇ	-16747
ཧ	-16748
ྗ	-16749
ྦ	-16750
ྫ	-16751
ဂ	-16752
ယ	-16753
ဟ	-16754
ါ	-16755
ူ	-16756
ჟ	-16757
ᄓ	-16758
ᄟ	-16759
ᄪ	-16760
ᄴ	-16761
ᄿ	-16762
ᆏ	-16763
ᆐ	-16764
ᇅ	-16765
ᇋ	-16766
ᇖ	-16767
ᇗ	-16768
ሞ	-16769
ቀ	-16770
ኔ	-16771
ዓ	-16772
ዝ	-16773
ዲ	-16774
ጉ	-16775
ፈ	-16776
ᐦ	-16777
ᐳ	-16778
ᑮ	-16779
ᒌ	-16780
ᕕ	-16781
ᚾ	-16782
ᛗ	-16783
ᛚ	-16784
ᜒ	-16785
ញ	-16786
ឹ	-16787
៊	-16788
᠌	-16789
ᴄ	-16790
ᴅ	-16791
ᴛ	-16792
᷄	-16793
Ḩ	-16794
ẓ	-16795
Ớ	-16796
Ụ	-16797
ỵ	-16798
ἷ	-16799
Ὄ	-16800
‸	-16801
₸	-16802
↺	-16803
≋	-16804
⏰	-16805
┫	-16806
☷	-16807
☸	-16808
♈	-16809
♉	-16810
♑	-16811
⚽	-16812
➍	-16813
➎	-16814
➏	-16815
➐	-16816
➑	-16817
➓	-16818
⠮	-16819
⡏	-16820
⣄	-16821
⣇	-16822
⭢	-16823
ⲉ	-16824
ⲡ	-16825
ⵇ	-16826
ⵊ	-16827
⺋	-16828
〚	-16829
〛	-16830
ㇰ	-16831
㑀	-16832
㔻	-16833
㕣	-16834
㖨	-16835
㥠	-16836
㫆	-16837
㮒	-16838
㾀	-16839
䑓	-16840
䫨	-16841
乫	-16842
亍	-16843
亩	-16844
伃	-16845
侂	-16846
侣	-16847
侨	-16848
俏	-16849
倓	-16850
倢	-16851
傕	-16852
僂	-16853
儵	-16854
兑	-16855
冝	-16856
刱	-16857
剂	-16858
匍	-16859
匽	-16860
卛	-16861
卣	-16862
吭	-16863
吮	-16864
吿	-16865
呃	-16866
咧	-16867
唏	-16868
啵	-16869
喎	-16870
嗡	-16871
嗩	-16872
嗾	-16873
噦	-16874
坩	-16875
坴	-16876
埅	-16877
埤	-16878
堝	-16879
塒	-16880
壴	-16881
壶	-16882
夋	-16883
夘	-16884
奫	-16885
姟	-16886
姤	-16887
娉	-16888
寀	-16889
屨	-16890
屭	-16891
岔	-16892
崍	-16893
嶙	-16894
嶧	-16895
巑	-16896
帔	-16897
幃	-16898
庞	-16899
弇	-16900
彑	-16901
忐	-16902
忑	-16903
忞	-16904
怙	-16905
慂	-16906
慜	-16907
戇	-16908
戠	-16909
戳	-16910
扵	-16911
抃	-16912
抢	-16913
抳	-16914
挌	-16915
挣	-16916
捎	-16917
捞	-16918
掰	-16919
揵	-16920
撇	-16921
撝	-16922
擠	-16923
擥	-16924
敨	-16925
斅	-16926
斲	-16927
旰	-16928
昃	-16929
昛	-16930
昩	-16931
晻	-16932
暕	-16933
曌	-16934
朩	-16935
杈	-16936
杪	-16937
枏	-16938
柤	-16939
栍	-16940
栠	-16941
桳	-16942
梲	-16943
棩	-16944
椙	-16945
楝	-16946
榏	-16947
榥	-16948
樛	-16949
櫳	-16950
欝	-16951
殡	-16952
氤	-16953
汔	-16954
泸	-16955
洦	-16956
洧	-16957
淂	-16958
淬	-16959
渽	-16960
湄	-16961
溌	-16962
溱	-16963
滤	-16964
澆	-16965
濚	-16966
灶	-16967
炕	-16968
炖	-16969
炘	-16970
烊	-16971
熤	-16972
熲	-16973
燊	-16974
燙	-16975
燬	-16976
爍	-16977
爕	-16978
牁	-16979
牯	-16980
犖	-16981
犛	-16982
狴	-16983
獜	-16984
獩	-16985
獭	-16986
玗	-16987
玷	-16988
珅	-16989
瑎	-16990
瑨	-16991
璲	-16992
瓛	-16993
甍	-16994
甎	-16995
甓	-16996
甿	-16997
畋	-16998
畛	-16999
畹	-17000
疤	-17001
瘼	-17002
癨	-17003
皁	-17004
皷	-17005
眥	-17006
眯	-17007
眶	-17008
睁	-17009
睍	-17010
睚	-17011
睥	-17012
睪	-17013
硨	-17014
磑	-17015
磵	-17016
礏	-17017
祊	-17018
禀	-17019
禋	-17020
禘	-17021
窦	-17022
窶	-17023
竑	-17024
笊	-17025
笋	-17026
笒	-17027
筤	-17028
篔	-17029
簋	-17030
簣	-17031
籖	-17032
籲	-17033
粂	-17034
粑	-17035
粢	-17036
粩	-17037
糲	-17038
紱	-17039
綯	-17040
緱	-17041
緲	-17042
纊	-17043
绊	-17044
缓	-17045
缤	-17046
罫	-17047
耈	-17048
聕	-17049
聝	-17050
聻	-17051
肽	-17052
胧	-17053
腆	-17054
腴	-17055
舄	-17056
舱	-17057
舺	-17058
艋	-17059
茈	-17060
莧	-17061
萵	-17062
蒴	-17063
蒹	-17064
蓏	-17065
蔕	-17066
蕘	-17067
薳	-17068
薹	-17069
蚝	-17070
蜋	-17071
蝥	-17072
螃	-17073
螽	-17074
蠑	-17075
蠲	-17076
衔	-17077
衮	-17078
袜	-17079
袵	-17080
裊	-17081
襤	-17082
襯	-17083
覊	-17084
觔	-17085
觱	-17086
訐	-17087
謾	-17088
讠	-17089
豭	-17090
貺	-17091
賺	-17092
跣	-17093
跼	-17094
踶	-17095
蹀	-17096
蹬	-17097
輌	-17098
輞	-17099
辡	-17100
迓	-17101
迥	-17102
逶	-17103
遒	-17104
遹	-17105
郄	-17106
郛	-17107
酹	-17108
醂	-17109
釅	-17110
鋥	-17111
鋱	-17112
錍	-17113
錕	-17114
鎏	-17115
鏍	-17116
鏜	-17117
鐡	-17118
鐷	-17119
鑕	-17120
铂	-17121
铝	-17122
铸	-17123
锯	-17124
镕	-17125
閂	-17126
陬	-17127
隲	-17128
雝	-17129
雠	-17130
霅	-17131
霙	-17132
靉	-17133
靱	-17134
靶	-17135
頚	-17136
顱	-17137
颊	-17138
飇	-17139
飪	-17140
餻	-17141
饍	-17142
馀	-17143
馒	-17144
駘	-17145
騃	-17146
騤	-17147
驀	-17148
驁	-17149
骁	-17150
鬟	-17151
鬭	-17152
鬮	-17153
鯁	-17154
鯔	-17155
鰌	-17156
鱺	-17157
鳯	-17158
鴃	-17159
鴿	-17160
鶇	-17161
鷁	-17162
鷙	-17163
鷳	-17164
鹼	-17165
麑	-17166
麨	-17167
黴	-17168
黿	-17169
鼗	-17170
鼙	-17171
鼡	-17172
鼢	-17173
齕	-17174
龑	-17175
ꚙ	-17176
ꥢ	-17177
ꥶ	-17178
갦	-17179
갵	-17180
걁	-17181
겇	-17182
겕	-17183
겧	-17184
겴	-17185
곅	-17186
곩	-17187
괆	-17188
괙	-17189
괫	-17190
굈	-17191
굨	-17192
궢	-17193
궳	-17194
궸	-17195
궻	-17196
귖	-17197
귻	-17198
긌	-17199
긼	-17200
깋	-17201
깑	-17202
깛	-17203
꺢	-17204
꺴	-17205
껗	-17206
꽄	-17207
꽦	-17208
꽬	-17209
꿃	-17210
꿓	-17211
뀪	-17212
끛	-17213
끜	-17214
냙	-17215
넏	-17216
넞	-17217
넿	-17218
녺	-17219
녿	-17220
놥	-17221
뇄	-17222
눜	-17223
뉏	-17224
늟	-17225
닟	-17226
닪	-17227
댥	-17228
덙	-17229
덢	-17230
덦	-17231
뎻	-17232
돆	-17233
돖	-17234
돩	-17235
둅	-17236
듓	-17237
듟	-17238
듨	-17239
듳	-17240
듴	-17241
딉	-17242
딭	-17243
딺	-17244
땗	-17245
땰	-17246
떅	-17247
떋	-17248
뗆	-17249
뗵	-17250
똈	-17251
똗	-17252
똽	-17253
뙜	-17254
뙡	-17255
뙭	-17256
뜃	-17257
뜡	-17258
뜵	-17259
랂	-17260
랅	-17261
랳	-17262
럲	-17263
럳	-17264
럻	-17265
렂	-17266
렠	-17267
렺	-17268
렾	-17269
룜	-17270
룺	-17271
뤟	-17272
뤱	-17273
뤳	-17274
륐	-17275
륾	-17276
릻	-17277
먏	-17278
먓	-17279
먗	-17280
먛	-17281
멊	-17282
멐	-17283
멛	-17284
멷	-17285
뫚	-17286
묨	-17287
묯	-17288
묳	-17289
뭑	-17290
뭰	-17291
뭼	-17292
믗	-17293
믭	-17294
밁	-17295
밇	-17296
밚	-17297
뱸	-17298
벏	-17299
볋	-17300
볹	-17301
봋	-17302
봎	-17303
봒	-17304
봴	-17305
봽	-17306
뵉	-17307
뵫	-17308
뵳	-17309
뵶	-17310
붂	-17311
붆	-17312
붋	-17313
붍	-17314
붚	-17315
붛	-17316
붝	-17317
붵	-17318
뷫	-17319
븛	-17320
븠	-17321
븪	-17322
빘	-17323
빹	-17324
뺔	-17325
뺡	-17326
뻟	-17327
뻫	-17328
뼇	-17329
뼥	-17330
뽬	-17331
뽴	-17332
뿗	-17333
쁏	-17334
삝	-17335
삹	-17336
샋	-17337
샭	-17338
섨	-17339
섮	-17340
셗	-17341
솖	-17342
쇙	-17343
숚	-17344
숝	-17345
숰	-17346
쉉	-17347
쉛	-17348
쉤	-17349
쉩	-17350
슡	-17351
싕	-17352
싧	-17353
싨	-17354
싪	-17355
싲	-17356
싳	-17357
싽	-17358
쌁	-17359
쌆	-17360
쌙	-17361
썋	-17362
썍	-17363
썐	-17364
썱	-17365
썲	-17366
썳	-17367
쎀	-17368
쏚	-17369
쑐	-17370
쑘	-17371
쑟	-17372
쒞	-17373
쒭	-17374
쒰	-17375
쒹	-17376
씇	-17377
얎	-17378
얷	-17379
엱	-17380
엸	-17381
옠	-17382
욝	-17383
욦	-17384
욮	-17385
욻	-17386
욼	-17387
윀	-17388
윝	-17389
읈	-17390
읬	-17391
읰	-17392
젰	-17393
젿	-17394
졥	-17395
좒	-17396
좠	-17397
좸	-17398
좽	-17399
죕	-17400
죢	-17401
죧	-17402
죱	-17403
줅	-17404
쥅	-17405
쥢	-17406
쥥	-17407
즞	-17408
즠	-17409
짴	-17410
쨎	-17411
쨖	-17412
쨨	-17413
쪨	-17414
쬥	-17415
쭂	-17416
쮓	-17417
쮠	-17418
쮬	-17419
찓	-17420
찫	-17421
찷	-17422
챶	-17423
첟	-17424
첰	-17425
촟	-17426
촠	-17427
촡	-17428
촢	-17429
촣	-17430
춟	-17431
춠	-17432
춭	-17433
춯	-17434
췅	-17435
췜	-17436
췹	-17437
츷	-17438
컭	-17439
콈	-17440
콙	-17441
콛	-17442
콮	-17443
쾐	-17444
쿌	-17445
쿭	-17446
퀰	-17447
큨	-17448
큾	-17449
킐	-17450
킠	-17451
킫	-17452
탒	-17453
탚	-17454
탵	-17455
턉	-17456
텇	-17457
퉭	-17458
튯	-17459
틘	-17460
팈	-17461
팛	-17462
퍕	-17463
퍝	-17464
퐑	-17465
퐤	-17466
풨	-17467
풹	-17468
픐	-17469
픓	-17470
픡	-17471
픨	-17472
핃	-17473
핖	-17474
핗	-17475
핶	-17476
햊	-17477
햍	-17478
헏	-17479
헓	-17480
헔	-17481
헮	-17482
혙	-17483
홒	-17484
홨	-17485
홭	-17486
힑	-17487
힢	-17488
ힱ	-17489
ퟀ	-17490
ퟁ	-17491
ퟋ	-17492
ퟍ	-17493
ퟻ	-17494
	-17495
	-17496
	-17497
𐎱	-17498
𐎴	-17499
𐏃	-17500
𐤐	-17501
𐱅	-17502
𒄿	-17503
𝄇	-17504
𝄪	-17505
🅗	-17506
🍌	-17507
🍥	-17508
🍹	-17509
🎰	-17510
🏫	-17511
🏾	-17512
🐷	-17513
👬	-17514
💔	-17515
💱	-17516
🔪	-17517
🔰	-17518
🔴	-17519
😙	-17520
😚	-17521
🙁	-17522
🙉	-17523
🙊	-17524
🚪	-17525
🤎	-17526
🤙	-17527
🥞	-17528
🦁	-17529
🧑	-17530
🩸	-17531
𠄔	-17532
𠔻	-17533
𠫓	-17534
𠮟	-17535
𡈼	-17536
𡈽	-17537
𢆯	-17538
𣏟	-17539
𤃡	-17540
𤣰	-17541
𤨒	-17542
𦧅	-17543
𩔇	-17544
𫙹	-17545
𱁬	-17546
󰊱	-17547
󰊲	-17548
Į	-17549
Ļ	-17550
Ņ	-17551
Ŕ	-17552
Ÿ	-17553
ƥ	-17554
Ǜ	-17555
ɝ	-17556
ʬ	-17557
ʭ	-17558
ʺ	-17559
˗	-17560
ϝ	-17561
Ϟ	-17562
Ѫ	-17563
ѵ	-17564
Ҙ	-17565
ӑ	-17566
ӗ	-17567
ӱ	-17568
ӹ	-17569
Պ	-17570
Ջ	-17571
Ռ	-17572
Փ	-17573
Օ	-17574
٠	-17575
٭	-17576
ٴ	-17577
ۋ	-17578
ۍ	-17579
ۖ	-17580
ރ	-17581
ު	-17582
ऑ	-17583
औ	-17584
ॉ	-17585
ॣ	-17586
॥	-17587
ঘ	-17588
ৰ	-17589
ਏ	-17590
ਚ	-17591
੍	-17592
છ	-17593
ଓ	-17594
ஒ	-17595
ஓ	-17596
ஷ	-17597
ఏ	-17598
ృ	-17599
ಗ	-17600
ಚ	-17601
ಥ	-17602
ಲ	-17603
ಳ	-17604
ം	-17605
ത	-17606
ന	-17607
ു	-17608
േ	-17609
ോ	-17610
ඞ	-17611
ජ	-17612
ත	-17613
හ	-17614
ැ	-17615
ฌ	-17616
ກ	-17617
ຂ	-17618
ພ	-17619
ີ	-17620
ູ	-17621
ཝ	-17622
ྣ	-17623
ྭ	-17624
ဖ	-17625
ဗ	-17626
ဘ	-17627
ᄤ	-17628
ᄻ	-17629
ᅂ	-17630
ᅅ	-17631
ᅑ	-17632
ᆀ	-17633
ᆃ	-17634
ᆊ	-17635
ᆍ	-17636
ᆎ	-17637
ᆙ	-17638
ᆚ	-17639
ᆦ	-17640
ᆻ	-17641
ᇆ	-17642
ᇟ	-17643
ሀ	-17644
ሊ	-17645
ሚ	-17646
ሳ	-17647
ቃ	-17648
ቅ	-17649
ቡ	-17650
ኃ	-17651
ኅ	-17652
ኛ	-17653
ካ	-17654
ዎ	-17655
ጊ	-17656
ፊ	-17657
ᐆ	-17658
ᐱ	-17659
ᑌ	-17660
ᒍ	-17661
ᒡ	-17662
ᒪ	-17663
ᓅ	-17664
ᓴ	-17665
ᔕ	-17666
ᔪ	-17667
ᕆ	-17668
ᕈ	-17669
ᗴ	-17670
ᚠ	-17671
ᚢ	-17672
ᚲ	-17673
ᛉ	-17674
ᜓ	-17675
ឋ	-17676
ថ	-17677
ួ	-17678
ៀ	-17679
ᴙ	-17680
ᶑ	-17681
Ḑ	-17682
ḡ	-17683
Ấ	-17684
Ẻ	-17685
Ề	-17686
Ố	-17687
Ỡ	-17688
Ợ	-17689
Ủ	-17690
Ứ	-17691
Ự	-17692
Ỳ	-17693
ỷ	-17694
Ỹ	-17695
ἓ	-17696
Ὁ	-17697
ὡ	-17698
‖	-17699
⃝	-17700
⃣	-17701
ↀ	-17702
↲	-17703
⇌	-17704
⊗	-17705
⋕	-17706
⎛	-17707
⎞	-17708
⎥	-17709
⏹	-17710
␣	-17711
╊	-17712
╤	-17713
▖	-17714
◔	-17715
◞	-17716
◟	-17717
☔	-17718
☥	-17719
☴	-17720
♓	-17721
⚆	-17722
⚾	-17723
❑	-17724
❥	-17725
➃	-17726
➒	-17727
⠒	-17728
⠖	-17729
⠷	-17730
⢉	-17731
⢠	-17732
⣧	-17733
⣰	-17734
⬧	-17735
⭕	-17736
Ɐ	-17737
ⲅ	-17738
ⲙ	-17739
ⲥ	-17740
ⲧ	-17741
⸮	-17742
⿴	-17743
ㄪ	-17744
ㇱ	-17745
ㇺ	-17746
㐎	-17747
㒇	-17748
㒨	-17749
㔾	-17750
㖚	-17751
㘒	-17752
㝡	-17753
㠯	-17754
㡩	-17755
㣖	-17756
㣡	-17757
㤠	-17758
㪳	-17759
㳓	-17760
㴐	-17761
㴲	-17762
㵜	-17763
㶱	-17764
㻂	-17765
䄡	-17766
䆨	-17767
䏈	-17768
䖂	-17769
䖍	-17770
䜳	-17771
䦙	-17772
丆	-17773
丩	-17774
丬	-17775
乬	-17776
亾	-17777
佊	-17778
佻	-17779
俌	-17780
倔	-17781
倨	-17782
僰	-17783
儇	-17784
儈	-17785
儛	-17786
儥	-17787
兦	-17788
凊	-17789
凿	-17790
刓	-17791
剕	-17792
勑	-17793
勱	-17794
匀	-17795
卌	-17796
卤	-17797
叨	-17798
咙	-17799
咦	-17800
咭	-17801
咼	-17802
咾	-17803
唼	-17804
啣	-17805
啬	-17806
啻	-17807
喁	-17808
喈	-17809
喼	-17810
嘖	-17811
嘼	-17812
噍	-17813
嚣	-17814
嚧	-17815
圂	-17816
垌	-17817
垮	-17818
埇	-17819
埏	-17820
堗	-17821
堧	-17822
塲	-17823
塽	-17824
壚	-17825
壢	-17826
夅	-17827
夨	-17828
夯	-17829
夽	-17830
妞	-17831
妺	-17832
姣	-17833
娄	-17834
娎	-17835
娲	-17836
娴	-17837
婀	-17838
嫄	-17839
嫓	-17840
嫘	-17841
孀	-17842
孁	-17843
孢	-17844
孳	-17845
宄	-17846
寯	-17847
峘	-17848
崒	-17849
崟	-17850
崢	-17851
崽	-17852
嶢	-17853
巉	-17854
巋	-17855
巓	-17856
巜	-17857
巵	-17858
巹	-17859
帘	-17860
幪	-17861
庥	-17862
廼	-17863
彔	-17864
徃	-17865
徠	-17866
恠	-17867
悯	-17868
慳	-17869
戉	-17870
挞	-17871
掣	-17872
摭	-17873
撸	-17874
攏	-17875
敛	-17876
斄	-17877
斋	-17878
斕	-17879
斝	-17880
昙	-17881
昢	-17882
晔	-17883
暧	-17884
曀	-17885
曒	-17886
曫	-17887
枭	-17888
柟	-17889
栈	-17890
栎	-17891
桅	-17892
桼	-17893
梴	-17894
椄	-17895
楣	-17896
榦	-17897
槧	-17898
槭	-17899
槲	-17900
槳	-17901
橛	-17902
檯	-17903
欷	-17904
歺	-17905
殛	-17906
殸	-17907
毙	-17908
氢	-17909
氳	-17910
氺	-17911
泚	-17912
泼	-17913
洺	-17914
浒	-17915
浞	-17916
涍	-17917
淅	-17918
淌	-17919
渔	-17920
湏	-17921
湝	-17922
溃	-17923
溧	-17924
滷	-17925
漯	-17926
潗	-17927
潺	-17928
澀	-17929
瀍	-17930
灓	-17931
灤	-17932
烛	-17933
烱	-17934
焮	-17935
焯	-17936
熞	-17937
燋	-17938
爌	-17939
爫	-17940
牓	-17941
狨	-17942
猯	-17943
獗	-17944
獞	-17945
獾	-17946
玎	-17947
玕	-17948
珆	-17949
珝	-17950
珷	-17951
璺	-17952
瓌	-17953
瓯	-17954
畀	-17955
畐	-17956
畾	-17957
痂	-17958
痊	-17959
痧	-17960
癤	-17961
盅	-17962
盇	-17963
睇	-17964
睱	-17965
瞍	-17966
矻	-17967
砸	-17968
磌	-17969
磕	-17970
磼	-17971
礀	-17972
礵	-17973
祹	-17974
禡	-17975
禶	-17976
秖	-17977
稃	-17978
稕	-17979
稛	-17980
穠	-17981
穮	-17982
竗	-17983
笃	-17984
笺	-17985
筩	-17986
筯	-17987
筰	-17988
筽	-17989
箎	-17990
篚	-17991
篦	-17992
篱	-17993
簑	-17994
糍	-17995
紉	-17996
絁	-17997
絙	-17998
絿	-17999
綁	-18000
緗	-18001
縒	-18002
繖	-18003
繙	-18004
纠	-18005
纶	-18006
绸	-18007
罃	-18008
罳	-18009
羝	-18010
耂	-18011
耇	-18012
耍	-18013
耑	-18014
聵	-18015
肠	-18016
肫	-18017
肰	-18018
胀	-18019
腮	-18020
臊	-18021
臤	-18022
舔	-18023
芎	-18024
芧	-18025
芼	-18026
茧	-18027
茻	-18028
荄	-18029
莵	-18030
菎	-18031
菏	-18032
菹	-18033
萋	-18034
萑	-18035
蒍	-18036
蓐	-18037
蓓	-18038
蔲	-18039
蕷	-18040
薆	-18041
蘑	-18042
蘚	-18043
蘷	-18044
蘸	-18045
虱	-18046
蚀	-18047
螵	-18048
蟣	-18049
衖	-18050
衹	-18051
裌	-18052
褧	-18053
褫	-18054
褰	-18055
襉	-18056
襠	-18057
襮	-18058
詘	-18059
誚	-18060
諟	-18061
諠	-18062
諰	-18063
諿	-18064
謏	-18065
譍	-18066
讫	-18067
豏	-18068
貆	-18069
賔	-18070
贩	-18071
贫	-18072
赎	-18073
赝	-18074
赩	-18075
趐	-18076
踣	-18077
躕	-18078
軹	-18079
辕	-18080
迨	-18081
邶	-18082
邻	-18083
郜	-18084
郪	-18085
鄖	-18086
鄷	-18087
酗	-18088
酲	-18089
釦	-18090
鉿	-18091
銶	-18092
錞	-18093
錣	-18094
鎣	-18095
鏁	-18096
鏛	-18097
鏝	-18098
鏽	-18099
鑚	-18100
铅	-18101
铡	-18102
铲	-18103
锣	-18104
镖	-18105
阤	-18106
阬	-18107
阼	-18108
雊	-18109
霌	-18110
靆	-18111
靷	-18112
鞜	-18113
韈	-18114
韞	-18115
韱	-18116
韺	-18117
頔	-18118
顷	-18119
颓	-18120
颚	-18121
颻	-18122
飧	-18123
餈	-18124
餝	-18125
饥	-18126
饨	-18127
馄	-18128
駃	-18129
駉	-18130
駓	-18131
驎	-18132
驶	-18133
髅	-18134
鮃	-18135
鯵	-18136
鯷	-18137
鯽	-18138
鰈	-18139
鰺	-18140
鱉	-18141
鱚	-18142
鱶	-18143
鲲	-18144
鳦	-18145
鴣	-18146
鸇	-18147
鸪	-18148
鹃	-18149
鹘	-18150
鹞	-18151
鹧	-18152
鹭	-18153
麭	-18154
黾	-18155
齔	-18156
齟	-18157
齬	-18158
齷	-18159
龡	-18160
龢	-18161
ꈍ	-18162
꜆	-18163
Ꟈ	-18164
ꥤ	-18165
ꥳ	-18166
ꥴ	-18167
갃	-18168
갆	-18169
걐	-18170
걳	-18171
걹	-18172
걽	-18173
겈	-18174
겢	-18175
겤	-18176
겫	-18177
곃	-18178
곴	-18179
괠	-18180
괬	-18181
굯	-18182
궄	-18183
궇	-18184
궋	-18185
궙	-18186
궞	-18187
궥	-18188
궫	-18189
궼	-18190
귡	-18191
긄	-18192
긕	-18193
깏	-18194
깒	-18195
깧	-18196
꺀	-18197
꺈	-18198
꺍	-18199
껔	-18200
껚	-18201
껟	-18202
꼆	-18203
꼔	-18204
꼯	-18205
꼱	-18206
꽚	-18207
꽠	-18208
꽣	-18209
꾳	-18210
꿐	-18211
꿥	-18212
뀅	-18213
뀟	-18214
뀱	-18215
뀸	-18216
끰	-18217
낞	-18218
낧	-18219
낶	-18220
낿	-18221
냟	-18222
냫	-18223
냰	-18224
넟	-18225
넺	-18226
놃	-18227
놇	-18228
놌	-18229
놝	-18230
놞	-18231
놤	-18232
뇤	-18233
눳	-18234
뉆	-18235
뉍	-18236
뉱	-18237
늓	-18238
늖	-18239
늛	-18240
닡	-18241
닣	-18242
닩	-18243
댋	-18244
댚	-18245
덌	-18246
덠	-18247
뎉	-18248
뎰	-18249
돘	-18250
돧	-18251
돵	-18252
됗	-18253
됟	-18254
됰	-18255
둼	-18256
뒗	-18257
듶	-18258
딞	-18259
땆	-18260
땩	-18261
떧	-18262
떭	-18263
떷	-18264
뗉	-18265
뗜	-18266
뗡	-18267
뗳	-18268
똝	-18269
똩	-18270
똴	-18271
똿	-18272
뙉	-18273
뙍	-18274
뚂	-18275
뚔	-18276
뚢	-18277
뚼	-18278
뛀	-18279
뛈	-18280
뛌	-18281
뛝	-18282
뛩	-18283
뜄	-18284
띃	-18285
띅	-18286
띧	-18287
띯	-18288
럂	-18289
럌	-18290
럶	-18291
럸	-18292
렞	-18293
렦	-18294
렼	-18295
롐	-18296
롕	-18297
롲	-18298
뢐	-18299
뢓	-18300
룥	-18301
룳	-18302
뤅	-18303
뤩	-18304
뤵	-18305
륮	-18306
릁	-18307
릂	-18308
릃	-18309
릡	-18310
릯	-18311
맭	-18312
맾	-18313
먙	-18314
먚	-18315
먯	-18316
멟	-18317
몭	-18318
몱	-18319
몲	-18320
몳	-18321
뫁	-18322
뫂	-18323
뫗	-18324
뫟	-18325
뫠	-18326
뫵	-18327
묌	-18328
묦	-18329
뭎	-18330
뭟	-18331
뭨	-18332
뮷	-18333
뮽	-18334
뮿	-18335
믏	-18336
믴	-18337
믻	-18338
밓	-18339
밻	-18340
뱈	-18341
뱽	-18342
벯	-18343
볭	-18344
봀	-18345
봗	-18346
봰	-18347
뵛	-18348
뵴	-18349
붃	-18350
붌	-18351
붎	-18352
붰	-18353
붼	-18354
뷛	-18355
뷤	-18356
뷮	-18357
븈	-18358
븞	-18359
븧	-18360
븩	-18361
븸	-18362
빓	-18363
빥	-18364
빮	-18365
빷	-18366
뺃	-18367
뺒	-18368
뺕	-18369
뺛	-18370
뺜	-18371
뺣	-18372
뺫	-18373
뺶	-18374
뻞	-18375
뻦	-18376
뻪	-18377
뻽	-18378
뼙	-18379
뼠	-18380
뽛	-18381
뽞	-18382
뽧	-18383
뾃	-18384
뾔	-18385
뾻	-18386
뿁	-18387
뿏	-18388
뿑	-18389
뿘	-18390
뿧	-18391
뿰	-18392
쀒	-18393
쀡	-18394
쀨	-18395
쀫	-18396
쀲	-18397
쀵	-18398
쁄	-18399
쁋	-18400
쁎	-18401
쁟	-18402
쁣	-18403
쁶	-18404
쁼	-18405
삗	-18406
샑	-18407
샢	-18408
섂	-18409
섑	-18410
섳	-18411
섷	-18412
섿	-18413
셓	-18414
셙	-18415
솄	-18416
솏	-18417
솑	-18418
솕	-18419
솛	-18420
솻	-18421
쇅	-18422
쇌	-18423
쇘	-18424
숤	-18425
숥	-18426
쉇	-18427
쉒	-18428
쉵	-18429
슀	-18430
슂	-18431
슄	-18432
싐	-18433
싻	-18434
쌅	-18435
쌇	-18436
쌒	-18437
쌖	-18438
썁	-18439
썮	-18440
쎥	-18441
쎨	-18442
쎿	-18443
쏌	-18444
쏛	-18445
쏶	-18446
쐔	-18447
쐭	-18448
쑞	-18449
쑩	-18450
쑫	-18451
쒧	-18452
쒱	-18453
쓈	-18454
쓑	-18455
쓕	-18456
쓧	-18457
씋	-18458
씥	-18459
앢	-18460
앦	-18461
앩	-18462
앻	-18463
엝	-18464
옶	-18465
왒	-18466
왛	-18467
욈	-18468
욙	-18469
욟	-18470
욡	-18471
욢	-18472
욵	-18473
윂	-18474
윋	-18475
윍	-18476
윞	-18477
윩	-18478
윸	-18479
윿	-18480
읧	-18481
잙	-18482
잢	-18483
쟗	-18484
쟟	-18485
쟢	-18486
쟴	-18487
젅	-18488
젉	-18489
젟	-18490
젨	-18491
젮	-18492
졺	-18493
죅	-18494
죸	-18495
죻	-18496
줈	-18497
줊	-18498
줋	-18499
줐	-18500
줓	-18501
쥄	-18502
쥈	-18503
쥗	-18504
즂	-18505
즊	-18506
즬	-18507
짎	-18508
짡	-18509
짲	-18510
짷	-18511
쨸	-18512
쩢	-18513
쩹	-18514
쪌	-18515
쪔	-18516
쫃	-18517
쫖	-18518
쫣	-18519
쬡	-18520
쬴	-18521
쬷	-18522
쭞	-18523
쭟	-18524
쭨	-18525
쮝	-18526
쯀	-18527
쯇	-18528
쯈	-18529
쯴	-18530
찗	-18531
찴	-18532
찵	-18533
챚	-18534
챯	-18535
챴	-18536
첀	-18537
첞	-18538
첢	-18539
첣	-18540
첧	-18541
첻	-18542
첿	-18543
쳼	-18544
촊	-18545
촏	-18546
촑	-18547
촰	-18548
촳	-18549
쵁	-18550
쵄	-18551
쵇	-18552
쵕	-18553
쵯	-18554
춝	-18555
춢	-18556
춨	-18557
춪	-18558
춬	-18559
춮	-18560
췕	-18561
츺	-18562
칿	-18563
캃	-18564
캊	-18565
캜	-18566
캳	-18567
켼	-18568
콻	-18569
쾓	-18570
쾻	-18571
쿜	-18572
쿹	-18573
퀨	-18574
큗	-18575
큺	-18576
킌	-18577
킶	-18578
탃	-18579
탍	-18580
턑	-18581
텂	-18582
텈	-18583
텠	-18584
톋	-18585
톮	-18586
톽	-18587
툘	-18588
툶	-18589
퉀	-18590
튺	-18591
틆	-18592
틐	-18593
틓	-18594
틤	-18595
팂	-18596
팓	-18597
팚	-18598
팧	-18599
팿	-18600
퍀	-18601
퍘	-18602
퍚	-18603
펁	-18604
펕	-18605
폂	-18606
폑	-18607
폣	-18608
폥	-18609
폳	-18610
퐂	-18611
퐆	-18612
퐛	-18613
퐠	-18614
퐳	-18615
푴	-18616
푷	-18617
푾	-18618
풇	-18619
풓	-18620
풕	-18621
풴	-18622
퓟	-18623
픋	-18624
핋	-18625
핛	-18626
핦	-18627
핪	-18628
핽	-18629
핿	-18630
햟	-18631
헕	-18632
헚	-18633
헯	-18634
헲	-18635
헺	-18636
헽	-18637
혂	-18638
혻	-18639
홪	-18640
홬	-18641
횜	-18642
횾	-18643
훏	-18644
훞	-18645
훸	-18646
휅	-18647
휇	-18648
휗	-18649
휳	-18650
흏	-18651
힇	-18652
힏	-18653
힚	-18654
ힻ	-18655
ퟂ	-18656
ퟝ	-18657
ퟤ	-18658
ퟶ	-18659
	-18660
	-18661
	-18662
𐌳	-18663
𐌸	-18664
𐍂	-18665
𐎭	-18666
𐎲	-18667
𐎺	-18668
𐤃	-18669
𐰍	-18670
𐰴	-18671
𐰼	-18672
𒁺	-18673
𒄩	-18674
𒈠	-18675
𒊑	-18676
𓅓	-18677
𘭞	-18678
𘰄	-18679
𘳍	-18680
𛀀	-18681
𝄆	-18682
𝅮	-18683
🅰	-18684
🅾	-18685
🇲	-18686
🌌	-18687
🌜	-18688
🌠	-18689
🌧	-18690
🌵	-18691
🍅	-18692
🍩	-18693
🍬	-18694
🎞	-18695
🎹	-18696
🏣	-18697
🏦	-18698
🏰	-18699
🏴	-18700
🐊	-18701
🐎	-18702
🐔	-18703
🐟	-18704
🐼	-18705
🐽	-18706
👆	-18707
👐	-18708
👮	-18709
👯	-18710
👾	-18711
💃	-18712
💄	-18713
💇	-18714
💬	-18715
💯	-18716
🔂	-18717
🔜	-18718
🔡	-18719
😏	-18720
😟	-18721
😪	-18722
😵	-18723
😺	-18724
🚂	-18725
🛡	-18726
🟡	-18727
🤑	-18728
🤓	-18729
🤝	-18730
🤤	-18731
🤫	-18732
🥄	-18733
🧐	-18734
𠀧	-18735
𠂇	-18736
𠃊	-18737
𠃍	-18738
𠊛	-18739
𠕅	-18740
𠦝	-18741
𡍬	-18742
𣍐	-18743
𦣻	-18744
𦥯	-18745
𩙿	-18746
𪟄	-18747
𰻝	-18748
𰻞	-18749
Ė	-18750
Ĩ	-18751
Ķ	-18752
Ť	-18753
Ũ	-18754
Ů	-18755
Ű	-18756
Ų	-18757
ŵ	-18758
ƃ	-18759
ȃ	-18760
ȓ	-18761
ȩ	-18762
ȷ	-18763
Ƀ	-18764
ʄ	-18765
ʗ	-18766
ʦ	-18767
˒	-18768
˳	-18769
Ϻ	-18770
Ћ	-18771
ѕ	-18772
Ѹ	-18773
҄	-18774
Ґ	-18775
Җ	-18776
ҙ	-18777
Ҡ	-18778
Ҳ	-18779
Ӕ	-18780
ԥ	-18781
Է	-18782
Ղ	-18783
Յ	-18784
՝	-18785
ֆ	-18786
֏	-18787
֖	-18788
ֳ	-18789
٢	-18790
٣	-18791
٤	-18792
ڌ	-18793
ڬ	-18794
ں	-18795
މ	-18796
ދ	-18797
ލ	-18798
ް	-18799
०	-18800
ঞ	-18801
ঠ	-18802
৳	-18803
ਇ	-18804
ਡ	-18805
ਢ	-18806
ઋ	-18807
ચ	-18808
ઞ	-18809
ટ	-18810
ડ	-18811
ફ	-18812
ળ	-18813
૨	-18814
૫	-18815
ଘ	-18816
ஏ	-18817
ஐ	-18818
ః	-18819
ఒ	-18820
ఛ	-18821
ಟ	-18822
ಣ	-18823
ದ	-18824
ಷ	-18825
ೆ	-18826
പ	-18827
ග	-18828
ට	-18829
ๅ	-18830
๐	-18831
๔	-18832
ສ	-18833
ຶ	-18834
ື	-18835
ແ	-18836
༎	-18837
༒	-18838
ཱ	-18839
ྔ	-18840
ྩ	-18841
ဒ	-18842
ဝ	-18843
ᄥ	-18844
ᄦ	-18845
ᄱ	-18846
ᅝ	-18847
ᅺ	-18848
ᅻ	-18849
ᆗ	-18850
ᆘ	-18851
ᇈ	-18852
ᇉ	-18853
ᇊ	-18854
ᇍ	-18855
ᇓ	-18856
ᇥ	-18857
ᇲ	-18858
ᇺ	-18859
ᇿ	-18860
ሁ	-18861
ሉ	-18862
ሌ	-18863
ሱ	-18864
ሲ	-18865
ሴ	-18866
ቴ	-18867
ቼ	-18868
ኈ	-18869
ኤ	-18870
ኮ	-18871
ዋ	-18872
ዛ	-18873
ዴ	-18874
ዽ	-18875
Ꭺ	-18876
ᐚ	-18877
ᐠ	-18878
ᐧ	-18879
ᐸ	-18880
ᑯ	-18881
ᒋ	-18882
ᓪ	-18883
ᓱ	-18884
ᔾ	-18885
ᕙ	-18886
ᖏ	-18887
ᖢ	-18888
ᙳ	-18889
ᚹ	-18890
ᚿ	-18891
ᛁ	-18892
ᛒ	-18893
ᜃ	-18894
ᜅ	-18895
ᜉ	-18896
ᜌ	-18897
ឃ	-18898
ផ	-18899
៌	-18900
។	-18901
ᡦ	-18902
ᡬ	-18903
ᨀ	-18904
ᴘ	-18905
᷅	-18906
ḇ	-18907
Ṅ	-18908
ṋ	-18909
ṙ	-18910
ẗ	-18911
Ạ	-18912
Ả	-18913
Ẩ	-18914
Ẫ	-18915
Ẳ	-18916
Ẵ	-18917
Ẹ	-18918
Ệ	-18919
Ọ	-18920
Ồ	-18921
Ổ	-18922
Ộ	-18923
Ữ	-18924
Ỵ	-18925
Ỷ	-18926
Ἶ	-18927
Ὕ	-18928
ὠ	-18929
ὧ	-18930
Ὡ	-18931
Ὦ	-18932
ᾗ	-18933
ᾥ	-18934
ᾧ	-18935
ῡ	-18936
‛	-18937
⁎	-18938
⁓	-18939
₣	-18940
₹	-18941
℟	-18942
⅁	-18943
ↂ	-18944
ↈ	-18945
∉	-18946
∓	-18947
⊄	-18948
⊊	-18949
⋆	-18950
⋏	-18951
⎜	-18952
⎝	-18953
⎠	-18954
⎧	-18955
⎩	-18956
⏲	-18957
⓷	-18958
╉	-18959
╔	-18960
╗	-18961
╚	-18962
╝	-18963
▹	-18964
☻	-18965
☿	-18966
♆	-18967
♊	-18968
♌	-18969
♏	-18970
♞	-18971
⚄	-18972
⚕	-18973
⚪	-18974
❎	-18975
❕	-18976
❝	-18977
❞	-18978
❢	-18979
❬	-18980
❭	-18981
⠅	-18982
⠔	-18983
⠡	-18984
⠧	-18985
⠭	-18986
⠰	-18987
⠸	-18988
⡉	-18989
⢤	-18990
⣹	-18991
⣻	-18992
⤢	-18993
Ɑ	-18994
Ⲅ	-18995
ⲏ	-18996
Ⲡ	-18997
ⲩ	-18998
ⴱ	-18999
⺌	-19000
⺕	-19001
⿲	-19002
〬	-19003
〰	-19004
ゕ	-19005
ゖ	-19006
ㆤ	-19007
ㆦ	-19008
ㆬ	-19009
ㆭ	-19010
ㇻ	-19011
ㇿ	-19012
㐒	-19013
㐱	-19014
㒱	-19015
㖰	-19016
㚓	-19017
㥁	-19018
㥃	-19019
㦋	-19020
㦕	-19021
㨾	-19022
㪅	-19023
㫺	-19024
㮇	-19025
㴢	-19026
㴭	-19027
㶣	-19028
㶨	-19029
㺶	-19030
㼁	-19031
㼅	-19032
䎽	-19033
䏉	-19034
䏰	-19035
䑋	-19036
䑛	-19037
䒑	-19038
䥑	-19039
䧟	-19040
䧹	-19041
䨱	-19042
䯩	-19043
䴏	-19044
䶂	-19045
䶈	-19046
丅	-19047
乮	-19048
亯	-19049
仌	-19050
仐	-19051
估	-19052
佉	-19053
佼	-19054
侁	-19055
侅	-19056
侊	-19057
侌	-19058
侾	-19059
俓	-19060
倏	-19061
倘	-19062
债	-19063
偪	-19064
傪	-19065
僩	-19066
僴	-19067
儐	-19068
儕	-19069
儸	-19070
兂	-19071
兺	-19072
冎	-19073
冦	-19074
冱	-19075
刅	-19076
刨	-19077
剗	-19078
剜	-19079
剮	-19080
劤	-19081
勦	-19082
匊	-19083
匾	-19084
卂	-19085
卟	-19086
卲	-19087
厡	-19088
吋	-19089
咁	-19090
咂	-19091
咋	-19092
咢	-19093
咿	-19094
哒	-19095
哧	-19096
哱	-19097
哿	-19098
唅	-19099
唊	-19100
唜	-19101
唟	-19102
唰	-19103
啗	-19104
喦	-19105
嗰	-19106
嘤	-19107
噉	-19108
噠	-19109
噷	-19110
噻	-19111
嚀	-19112
嚾	-19113
囫	-19114
囸	-19115
圎	-19116
坞	-19117
垍	-19118
垝	-19119
堠	-19120
塠	-19121
墍	-19122
壜	-19123
壝	-19124
壩	-19125
夆	-19126
夛	-19127
夞	-19128
夵	-19129
奌	-19130
奵	-19131
妭	-19132
姞	-19133
姶	-19134
娚	-19135
婭	-19136
媐	-19137
媯	-19138
媺	-19139
媾	-19140
嫐	-19141
嫔	-19142
孖	-19143
宖	-19144
宬	-19145
寏	-19146
岀	-19147
岧	-19148
峀	-19149
峋	-19150
峕	-19151
峼	-19152
嶔	-19153
帐	-19154
帿	-19155
幖	-19156
庹	-19157
廏	-19158
廑	-19159
廞	-19160
廮	-19161
廸	-19162
弒	-19163
彠	-19164
徂	-19165
徬	-19166
忭	-19167
怊	-19168
怍	-19169
恇	-19170
恳	-19171
恼	-19172
惔	-19173
惦	-19174
愊	-19175
愌	-19176
慴	-19177
憻	-19178
戛	-19179
戧	-19180
抂	-19181
抻	-19182
拄	-19183
拲	-19184
挍	-19185
挚	-19186
挧	-19187
捆	-19188
捽	-19189
掀	-19190
掔	-19191
掙	-19192
掷	-19193
揽	-19194
搁	-19195
搆	-19196
搴	-19197
摟	-19198
撿	-19199
擐	-19200
擖	-19201
攢	-19202
敄	-19203
敫	-19204
斁	-19205
斠	-19206
旉	-19207
旕	-19208
旲	-19209
昚	-19210
晌	-19211
晬	-19212
曱	-19213
朳	-19214
杁	-19215
杣	-19216
枎	-19217
枒	-19218
枲	-19219
枵	-19220
柗	-19221
栋	-19222
栏	-19223
栒	-19224
栯	-19225
栾	-19226
桒	-19227
桠	-19228
梠	-19229
棅	-19230
棓	-19231
棪	-19232
椳	-19233
楃	-19234
楩	-19235
槥	-19236
槵	-19237
樉	-19238
橚	-19239
檉	-19240
檠	-19241
欞	-19242
欻	-19243
欿	-19244
殇	-19245
殱	-19246
殽	-19247
毱	-19248
氕	-19249
氫	-19250
汩	-19251
汹	-19252
泜	-19253
洎	-19254
洫	-19255
浔	-19256
浟	-19257
浯	-19258
涫	-19259
淒	-19260
淝	-19261
淯	-19262
渲	-19263
湲	-19264
溍	-19265
溲	-19266
溷	-19267
滙	-19268
滦	-19269
滹	-19270
漚	-19271
漵	-19272
潅	-19273
潡	-19274
澇	-19275
澕	-19276
澯	-19277
瀁	-19278
瀯	-19279
瀼	-19280
灃	-19281
灞	-19282
灢	-19283
炟	-19284
烉	-19285
烕	-19286
焌	-19287
煏	-19288
熀	-19289
熿	-19290
燠	-19291
燴	-19292
爇	-19293
爚	-19294
牔	-19295
狋	-19296
狷	-19297
猘	-19298
猢	-19299
獂	-19300
獃	-19301
玔	-19302
玜	-19303
玭	-19304
玽	-19305
珇	-19306
珛	-19307
琔	-19308
琡	-19309
琻	-19310
瑑	-19311
瑥	-19312
瑺	-19313
璅	-19314
璈	-19315
璝	-19316
瓒	-19317
甖	-19318
甴	-19319
畂	-19320
畄	-19321
疌	-19322
疙	-19323
疟	-19324
疥	-19325
痿	-19326
瘞	-19327
瘩	-19328
癋	-19329
癍	-19330
癘	-19331
癢	-19332
癯	-19333
皃	-19334
皚	-19335
皦	-19336
皰	-19337
皴	-19338
盯	-19339
眛	-19340
睒	-19341
睔	-19342
瞩	-19343
矇	-19344
矍	-19345
矽	-19346
砖	-19347
砚	-19348
砮	-19349
硲	-19350
碶	-19351
礮	-19352
礴	-19353
祂	-19354
禩	-19355
禯	-19356
稣	-19357
稹	-19358
窾	-19359
竒	-19360
笆	-19361
筓	-19362
筳	-19363
筺	-19364
箘	-19365
箠	-19366
簌	-19367
簟	-19368
簹	-19369
籏	-19370
籔	-19371
籜	-19372
糆	-19373
糓	-19374
糗	-19375
糬	-19376
紒	-19377
紓	-19378
紝	-19379
紞	-19380
絋	-19381
絰	-19382
絽	-19383
綉	-19384
綮	-19385
緌	-19386
緦	-19387
縈	-19388
縕	-19389
縟	-19390
縠	-19391
縯	-19392
縲	-19393
繓	-19394
纁	-19395
纟	-19396
纤	-19397
纺	-19398
绳	-19399
缀	-19400
缉	-19401
缕	-19402
缥	-19403
缾	-19404
羑	-19405
羕	-19406
羙	-19407
翏	-19408
翬	-19409
翶	-19410
耦	-19411
聟	-19412
聢	-19413
肀	-19414
肓	-19415
胰	-19416
腻	-19417
膓	-19418
膶	-19419
舁	-19420
舸	-19421
艚	-19422
芛	-19423
芩	-19424
茷	-19425
荽	-19426
莇	-19427
莟	-19428
莩	-19429
莭	-19430
菼	-19431
葎	-19432
蒡	-19433
蒦	-19434
蓊	-19435
蓖	-19436
蓚	-19437
蓜	-19438
蓳	-19439
蔴	-19440
蔾	-19441
蕖	-19442
蕡	-19443
蕴	-19444
薐	-19445
薾	-19446
藠	-19447
蘗	-19448
蘞	-19449
蚂	-19450
蚵	-19451
蛀	-19452
蜆	-19453
蜗	-19454
蝇	-19455
蝪	-19456
螈	-19457
螗	-19458
蠆	-19459
蠋	-19460
蠖	-19461
衎	-19462
衬	-19463
袄	-19464
袱	-19465
袷	-19466
裱	-19467
褍	-19468
褙	-19469
褱	-19470
褶	-19471
襛	-19472
襞	-19473
覯	-19474
訔	-19475
詒	-19476
詧	-19477
誩	-19478
謜	-19479
譌	-19480
诈	-19481
诊	-19482
诡	-19483
诶	-19484
谡	-19485
谧	-19486
豇	-19487
豷	-19488
豽	-19489
貅	-19490
貐	-19491
賖	-19492
賙	-19493
賸	-19494
賾	-19495
贐	-19496
贗	-19497
贰	-19498
贱	-19499
赌	-19500
赓	-19501
赔	-19502
赥	-19503
趟	-19504
趯	-19505
跤	-19506
踉	-19507
踕	-19508
踟	-19509
蹋	-19510
蹛	-19511
蹢	-19512
蹭	-19513
蹺	-19514
蹻	-19515
躄	-19516
輊	-19517
輗	-19518
輣	-19519
轑	-19520
轥	-19521
轼	-19522
迁	-19523
迕	-19524
迩	-19525
逌	-19526
逺	-19527
邲	-19528
邴	-19529
邹	-19530
郚	-19531
鄃	-19532
鄘	-19533
鄡	-19534
鄫	-19535
鄳	-19536
醅	-19537
醲	-19538
釃	-19539
釛	-19540
釩	-19541
鈗	-19542
鉶	-19543
鉽	-19544
鋧	-19545
鋨	-19546
錾	-19547
鍝	-19548
鍥	-19549
鎛	-19550
鎤	-19551
鏐	-19552
鏳	-19553
鐏	-19554
鐐	-19555
鐫	-19556
鐶	-19557
鑁	-19558
钗	-19559
铍	-19560
铳	-19561
锈	-19562
锉	-19563
锢	-19564
镐	-19565
镰	-19566
闸	-19567
阐	-19568
阑	-19569
阙	-19570
隳	-19571
隺	-19572
雏	-19573
霉	-19574
靏	-19575
靨	-19576
鞹	-19577
韡	-19578
韧	-19579
頀	-19580
頙	-19581
頞	-19582
颍	-19583
颐	-19584
飣	-19585
飤	-19586
餔	-19587
餺	-19588
饣	-19589
馈	-19590
馺	-19591
駢	-19592
騁	-19593
騖	-19594
驯	-19595
驳	-19596
驴	-19597
骐	-19598
髀	-19599
髳	-19600
鬦	-19601
鬺	-19602
魋	-19603
魷	-19604
鮞	-19605
鯣	-19606
鯫	-19607
鱔	-19608
鱖	-19609
鱲	-19610
鲨	-19611
鳄	-19612
鳌	-19613
鵤	-19614
鵾	-19615
鶡	-19616
鶹	-19617
鶿	-19618
鷓	-19619
鷴	-19620
鸎	-19621
鸓	-19622
鹄	-19623
麂	-19624
麈	-19625
麛	-19626
麞	-19627
麸	-19628
黺	-19629
鼕	-19630
齠	-19631
齪	-19632
齲	-19633
龚	-19634
ꆈ	-19635
ꈊ	-19636
ꌠ	-19637
ꓘ	-19638
ꙁ	-19639
Ꙫ	-19640
ꙭ	-19641
ꜱ	-19642
Ꝛ	-19643
꞉	-19644
Ꞷ	-19645
ꥥ	-19646
ꥲ	-19647
ꦕ	-19648
꧁	-19649
꧂	-19650
갌	-19651
갍	-19652
갣	-19653
갥	-19654
갨	-19655
갲	-19656
갷	-19657
걂	-19658
걄	-19659
걏	-19660
걓	-19661
걕	-19662
걠	-19663
걡	-19664
걥	-19665
걾	-19666
겎	-19667
겒	-19668
겗	-19669
겣	-19670
겥	-19671
겭	-19672
겳	-19673
곕	-19674
곙	-19675
곫	-19676
곮	-19677
괅	-19678
괕	-19679
괗	-19680
괢	-19681
괧	-19682
괯	-19683
괱	-19684
괺	-19685
굗	-19686
굛	-19687
굟	-19688
굦	-19689
굮	-19690
굱	-19691
굸	-19692
궒	-19693
궔	-19694
궖	-19695
궚	-19696
궮	-19697
궯	-19698
궰	-19699
궶	-19700
궺	-19701
귍	-19702
귏	-19703
귗	-19704
귙	-19705
귛	-19706
귧	-19707
귨	-19708
귵	-19709
긃	-19710
긒	-19711
긛	-19712
긝	-19713
긡	-19714
긢	-19715
긣	-19716
긬	-19717
긹	-19718
긻	-19719
긽	-19720
깕	-19721
깖	-19722
깣	-19723
깦	-19724
깯	-19725
깳	-19726
꺏	-19727
꺐	-19728
꺑	-19729
꺓	-19730
껇	-19731
껖	-19732
껦	-19733
껰	-19734
꼄	-19735
꼅	-19736
꼑	-19737
꼒	-19738
꼣	-19739
꼲	-19740
꼶	-19741
꽑	-19742
꽙	-19743
꽯	-19744
꽸	-19745
꾑	-19746
꾔	-19747
꾠	-19748
꾥	-19749
꾫	-19750
꾬	-19751
꾭	-19752
꾺	-19753
꿆	-19754
꿒	-19755
뀁	-19756
뀂	-19757
뀃	-19758
뀓	-19759
뀛	-19760
뀢	-19761
뀾	-19762
끏	-19763
끑	-19764
끘	-19765
낐	-19766
낕	-19767
낗	-19768
낤	-19769
낻	-19770
낽	-19771
냀	-19772
냃	-19773
냊	-19774
냌	-19775
냍	-19776
냛	-19777
냼	-19778
넁	-19779
넍	-19780
넎	-19781
넔	-19782
넧	-19783
넶	-19784
녅	-19785
녙	-19786
놁	-19787
놅	-19788
놆	-19789
놊	-19790
놛	-19791
놬	-19792
놶	-19793
눀	-19794
눁	-19795
눃	-19796
눵	-19797
뉄	-19798
뉇	-19799
뉑	-19800
뉬	-19801
뉽	-19802
늜	-19803
늝	-19804
늞	-19805
늢	-19806
늤	-19807
늭	-19808
늿	-19809
닍	-19810
닒	-19811
닱	-19812
댊	-19813
댖	-19814
댗	-19815
댦	-19816
댧	-19817
댶	-19818
덲	-19819
덹	-19820
덾	-19821
뎂	-19822
뎒	-19823
뎙	-19824
뎢	-19825
뎽	-19826
돉	-19827
돊	-19828
돍	-19829
돒	-19830
돳	-19831
돶	-19832
돸	-19833
돽	-19834
돿	-19835
됈	-19836
됡	-19837
됯	-19838
됱	-19839
됺	-19840
됻	-19841
둇	-19842
둈	-19843
둛	-19844
둧	-19845
둨	-19846
둩	-19847
둽	-19848
뒉	-19849
뒔	-19850
뒕	-19851
뒘	-19852
뒙	-19853
뒫	-19854
뒾	-19855
듇	-19856
듘	-19857
듚	-19858
듛	-19859
듲	-19860
딖	-19861
딢	-19862
딦	-19863
딳	-19864
딵	-19865
딶	-19866
땊	-19867
땓	-19868
땕	-19869
땞	-19870
땻	-19871
땼	-19872
떑	-19873
떗	-19874
떟	-19875
떥	-19876
떦	-19877
떩	-19878
뗋	-19879
뗔	-19880
뗝	-19881
뗞	-19882
뗣	-19883
뗫	-19884
뗭	-19885
뗶	-19886
뗻	-19887
뗿	-19888
똒	-19889
똛	-19890
똧	-19891
똷	-19892
뙀	-19893
뙒	-19894
뙬	-19895
뙮	-19896
뙱	-19897
뙳	-19898
뚆	-19899
뚣	-19900
뚩	-19901
뚮	-19902
뚳	-19903
뚶	-19904
뛇	-19905
뛓	-19906
뛕	-19907
뛗	-19908
뛛	-19909
뛧	-19910
뛱	-19911
뛷	-19912
뛹	-19913
뛻	-19914
뜏	-19915
뜔	-19916
뜪	-19917
뜲	-19918
뜼	-19919
뜾	-19920
뜿	-19921
띇	-19922
띎	-19923
띴	-19924
띻	-19925
랆	-19926
랝	-19927
랢	-19928
랤	-19929
랮	-19930
랷	-19931
랻	-19932
랽	-19933
럣	-19934
럮	-19935
럯	-19936
럵	-19937
렑	-19938
렓	-19939
렚	-19940
렧	-19941
렰	-19942
렳	-19943
롊	-19944
롟	-19945
롳	-19946
뢋	-19947
뢘	-19948
뢤	-19949
뢥	-19950
룛	-19951
룧	-19952
룴	-19953
룷	-19954
룿	-19955
뤯	-19956
뤰	-19957
뤺	-19958
륖	-19959
륗	-19960
륝	-19961
륟	-19962
륡	-19963
륰	-19964
륱	-19965
륳	-19966
륿	-19967
릀	-19968
릆	-19969
릞	-19970
릟	-19971
릣	-19972
릥	-19973
릦	-19974
릱	-19975
릵	-19976
맋	-19977
맖	-19978
맚	-19979
맪	-19980
맮	-19981
먃	-19982
먅	-19983
먍	-19984
먳	-19985
멃	-19986
멆	-19987
멒	-19988
멢	-19989
멦	-19990
멯	-19991
멵	-19992
멶	-19993
멹	-19994
멻	-19995
멽	-19996
몍	-19997
몓	-19998
몣	-19999
몮	-20000
몴	-20001
몷	-20002
몺	-20003
뫘	-20004
뫞	-20005
뫽	-20006
묈	-20007
묍	-20008
묚	-20009
묟	-20010
묡	-20011
묩	-20012
묬	-20013
묱	-20014
묹	-20015
묺	-20016
뭆	-20017
뭓	-20018
뭗	-20019
뭷	-20020
뭺	-20021
뮅	-20022
뮔	-20023
뮜	-20024
뮠	-20025
뮧	-20026
뮫	-20027
뮯	-20028
뮰	-20029
뮳	-20030
뮶	-20031
믉	-20032
믊	-20033
믛	-20034
믺	-20035
믽	-20036
밙	-20037
뱂	-20038
뱇	-20039
뱏	-20040
뱒	-20041
뱙	-20042
뱚	-20043
뱞	-20044
뱷	-20045
뱺	-20046
뱻	-20047
벇	-20048
벉	-20049
벊	-20050
벒	-20051
벪	-20052
벲	-20053
벷	-20054
볉	-20055
볗	-20056
볟	-20057
볳	-20058
봂	-20059
봖	-20060
봛	-20061
봢	-20062
봭	-20063
봵	-20064
뵑	-20065
뵧	-20066
뵲	-20067
뵵	-20068
뵸	-20069
뵻	-20070
붠	-20071
붥	-20072
붷	-20073
붿	-20074
뷃	-20075
뷄	-20076
뷇	-20077
뷈	-20078
뷉	-20079
뷋	-20080
뷐	-20081
뷓	-20082
뷦	-20083
뷭	-20084
뷵	-20085
뷷	-20086
뷼	-20087
븎	-20088
븏	-20089
븗	-20090
븚	-20091
븣	-20092
븻	-20093
빣	-20094
빫	-20095
빶	-20096
빺	-20097
빾	-20098
뺝	-20099
뺟	-20100
뺠	-20101
뺥	-20102
뺦	-20103
뺧	-20104
뺮	-20105
뺳	-20106
뺹	-20107
뺿	-20108
뻕	-20109
뻖	-20110
뻙	-20111
뻚	-20112
뻛	-20113
뻻	-20114
뼀	-20115
뼐	-20116
뼞	-20117
뼡	-20118
뼢	-20119
뼦	-20120
뼱	-20121
뼴	-20122
뽆	-20123
뽊	-20124
뽒	-20125
뽔	-20126
뽖	-20127
뽗	-20128
뽙	-20129
뽚	-20130
뽷	-20131
뾂	-20132
뾄	-20133
뾅	-20134
뾇	-20135
뾘	-20136
뾥	-20137
뾹	-20138
뿃	-20139
뿉	-20140
뿋	-20141
뿒	-20142
뿙	-20143
뿚	-20144
뿞	-20145
뿥	-20146
뿦	-20147
뿮	-20148
뿷	-20149
쀀	-20150
쀌	-20151
쀎	-20152
쀐	-20153
쀑	-20154
쀤	-20155
쀿	-20156
쁅	-20157
쁉	-20158
쁓	-20159
쁕	-20160
쁖	-20161
쁚	-20162
쁢	-20163
쁵	-20164
쁽	-20165
삂	-20166
삇	-20167
삜	-20168
샓	-20169
샟	-20170
샦	-20171
샪	-20172
샫	-20173
샮	-20174
샶	-20175
샻	-20176
섋	-20177
섎	-20178
섚	-20179
셆	-20180
셚	-20181
셡	-20182
셢	-20183
셣	-20184
셭	-20185
셷	-20186
솈	-20187
솒	-20188
솗	-20189
솞	-20190
솠	-20191
솣	-20192
솯	-20193
쇇	-20194
쇚	-20195
쇝	-20196
쇟	-20197
쇰	-20198
쇻	-20199
숁	-20200
숓	-20201
숡	-20202
숢	-20203
숦	-20204
숪	-20205
숬	-20206
숵	-20207
쉄	-20208
쉖	-20209
쉙	-20210
쉜	-20211
쉻	-20212
슊	-20213
슏	-20214
슑	-20215
슓	-20216
슞	-20217
슫	-20218
슯	-20219
싊	-20220
싓	-20221
싘	-20222
싟	-20223
싡	-20224
싥	-20225
싩	-20226
쌄	-20227
쌊	-20228
쌎	-20229
쌚	-20230
쌛	-20231
쌲	-20232
쌷	-20233
쌺	-20234
쌻	-20235
썃	-20236
썗	-20237
썴	-20238
썷	-20239
썾	-20240
쎂	-20241
쎋	-20242
쎜	-20243
쎞	-20244
쎟	-20245
쎡	-20246
쎫	-20247
쎰	-20248
쏏	-20249
쏔	-20250
쏲	-20251
쏻	-20252
쏽	-20253
쐄	-20254
쐅	-20255
쐏	-20256
쐠	-20257
쐥	-20258
쐩	-20259
쐽	-20260
쑊	-20261
쑍	-20262
쑰	-20263
쑱	-20264
쑷	-20265
쑼	-20266
쑽	-20267
쒂	-20268
쒈	-20269
쒨	-20270
쒺	-20271
쓀	-20272
쓍	-20273
쓚	-20274
쓜	-20275
쓟	-20276
쓤	-20277
쓷	-20278
쓹	-20279
씍	-20280
앲	-20281
앷	-20282
앹	-20283
얓	-20284
얩	-20285
얰	-20286
엕	-20287
엞	-20288
엟	-20289
엧	-20290
엲	-20291
옏	-20292
옑	-20293
옓	-20294
옡	-20295
옱	-20296
왅	-20297
왏	-20298
왖	-20299
왙	-20300
왣	-20301
왧	-20302
욚	-20303
욫	-20304
욭	-20305
욳	-20306
욽	-20307
웂	-20308
웖	-20309
웞	-20310
윓	-20311
윖	-20312
윚	-20313
윣	-20314
윧	-20315
윪	-20316
윫	-20317
윮	-20318
윯	-20319
윲	-20320
윺	-20321
윻	-20322
읁	-20323
읂	-20324
읤	-20325
읮	-20326
읲	-20327
읳	-20328
잂	-20329
잓	-20330
잟	-20331
잶	-20332
잾	-20333
쟄	-20334
쟅	-20335
쟇	-20336
쟏	-20337
쟑	-20338
쟔	-20339
쟥	-20340
쟸	-20341
쟻	-20342
젂	-20343
젃	-20344
젎	-20345
젒	-20346
젣	-20347
젳	-20348
젻	-20349
졁	-20350
졂	-20351
졏	-20352
졒	-20353
졓	-20354
졬	-20355
졲	-20356
졵	-20357
졽	-20358
졾	-20359
졿	-20360
좎	-20361
좖	-20362
좧	-20363
좫	-20364
좼	-20365
죏	-20366
죝	-20367
죥	-20368
죴	-20369
죷	-20370
죹	-20371
줂	-20372
줔	-20373
줦	-20374
줳	-20375
쥫	-20376
쥮	-20377
쥻	-20378
즏	-20379
즚	-20380
즟	-20381
즡	-20382
즷	-20383
짏	-20384
짣	-20385
짩	-20386
짺	-20387
쨏	-20388
쨓	-20389
쨢	-20390
쨱	-20391
쨻	-20392
쩒	-20393
쪅	-20394
쪰	-20395
쪳	-20396
쫋	-20397
쫐	-20398
쫔	-20399
쫕	-20400
쫫	-20401
쫰	-20402
쬑	-20403
쬽	-20404
쬿	-20405
쭓	-20406
쭯	-20407
쮕	-20408
쮱	-20409
쮼	-20410
쯁	-20411
쯛	-20412
쯫	-20413
쯬	-20414
쯸	-20415
찅	-20416
찖	-20417
찛	-20418
찠	-20419
찤	-20420
찥	-20421
찲	-20422
찳	-20423
찺	-20424
챀	-20425
챁	-20426
챜	-20427
챣	-20428
챩	-20429
챲	-20430
챹	-20431
챻	-20432
챽	-20433
첄	-20434
첐	-20435
첚	-20436
첛	-20437
첥	-20438
첦	-20439
첪	-20440
첱	-20441
첳	-20442
첶	-20443
첽	-20444
쳋	-20445
쳒	-20446
쳕	-20447
쳧	-20448
쳫	-20449
쳭	-20450
촍	-20451
촎	-20452
촓	-20453
촕	-20454
촖	-20455
촗	-20456
촻	-20457
쵣	-20458
쵿	-20459
춇	-20460
춏	-20461
춗	-20462
춡	-20463
춦	-20464
췆	-20465
췔	-20466
췛	-20467
췝	-20468
췱	-20469
췸	-20470
츆	-20471
츎	-20472
츚	-20473
츞	-20474
츸	-20475
츻	-20476
칑	-20477
칚	-20478
칣	-20479
칾	-20480
캟	-20481
캨	-20482
캩	-20483
컀	-20484
컛	-20485
컯	-20486
켇	-20487
켉	-20488
켞	-20489
켳	-20490
콉	-20491
콋	-20492
콍	-20493
콞	-20494
콣	-20495
콪	-20496
콭	-20497
쾋	-20498
쾹	-20499
쿁	-20500
쿏	-20501
쿧	-20502
쿩	-20503
쿪	-20504
쿫	-20505
쿲	-20506
쿶	-20507
쿻	-20508
퀡	-20509
퀣	-20510
큌	-20511
큚	-20512
큢	-20513
큩	-20514
큫	-20515
큱	-20516
킇	-20517
킉	-20518
킛	-20519
킝	-20520
킦	-20521
킭	-20522
킺	-20523
킿	-20524
탂	-20525
탆	-20526
탊	-20527
탪	-20528
탴	-20529
탺	-20530
탿	-20531
턁	-20532
턌	-20533
턐	-20534
턒	-20535
턓	-20536
턕	-20537
턚	-20538
턢	-20539
턥	-20540
턩	-20541
턳	-20542
턷	-20543
턹	-20544
턻	-20545
텆	-20546
텗	-20547
텞	-20548
텣	-20549
텪	-20550
텳	-20551
톁	-20552
톃	-20553
톕	-20554
톗	-20555
톙	-20556
톝	-20557
톢	-20558
톶	-20559
톻	-20560
퇍	-20561
퇑	-20562
퇙	-20563
퇣	-20564
퇫	-20565
툓	-20566
툔	-20567
툝	-20568
툡	-20569
툣	-20570
툩	-20571
툫	-20572
툯	-20573
툳	-20574
툷	-20575
툸	-20576
툹	-20577
툺	-20578
퉃	-20579
퉇	-20580
퉠	-20581
퉬	-20582
퉱	-20583
퉸	-20584
튎	-20585
튔	-20586
튘	-20587
튙	-20588
튟	-20589
튦	-20590
튮	-20591
튲	-20592
튳	-20593
튵	-20594
튶	-20595
튻	-20596
틏	-20597
틒	-20598
틳	-20599
팄	-20600
팆	-20601
팒	-20602
팢	-20603
팮	-20604
팯	-20605
퍁	-20606
퍐	-20607
퍤	-20608
퍾	-20609
퍿	-20610
펃	-20611
펅	-20612
펋	-20613
펗	-20614
펡	-20615
펬	-20616
펺	-20617
폁	-20618
폃	-20619
폵	-20620
퐃	-20621
퐘	-20622
퐙	-20623
퐟	-20624
푥	-20625
푧	-20626
푩	-20627
푫	-20628
푭	-20629
푲	-20630
풄	-20631
풅	-20632
풏	-20633
풘	-20634
풬	-20635
퓀	-20636
퓁	-20637
퓙	-20638
퓡	-20639
퓳	-20640
퓴	-20641
퓵	-20642
픁	-20643
픒	-20644
픜	-20645
픟	-20646
픱	-20647
픳	-20648
픵	-20649
픻	-20650
핁	-20651
핆	-20652
핎	-20653
핒	-20654
핯	-20655
햚	-20656
햞	-20657
햨	-20658
햭	-20659
햰	-20660
햿	-20661
헁	-20662
헒	-20663
헫	-20664
혇	-20665
혉	-20666
혍	-20667
혒	-20668
혖	-20669
혗	-20670
혭	-20671
혺	-20672
혾	-20673
홂	-20674
홄	-20675
홎	-20676
홏	-20677
홣	-20678
홴	-20679
횂	-20680
횓	-20681
횧	-20682
횹	-20683
횼	-20684
훇	-20685
훒	-20686
훘	-20687
훩	-20688
훯	-20689
훹	-20690
휋	-20691
휌	-20692
휔	-20693
휡	-20694
휪	-20695
휬	-20696
휰	-20697
휱	-20698
휽	-20699
휿	-20700
흖	-20701
흞	-20702
흧	-20703
힋	-20704
힍	-20705
힕	-20706
ힷ	-20707
ힽ	-20708
ퟃ	-20709
ퟛ	-20710
ퟣ	-20711
	-20712
	-20713
	-20714
	-20715
	-20716
	-20717
	-20718
𐌲	-20719
𐌻	-20720
𐌼	-20721
𐍄	-20722
𐎫	-20723
𐎿	-20724
𐬀	-20725
𐰚	-20726
𐰣	-20727
𐰰	-20728
𒀉	-20729
𒀊	-20730
𒁉	-20731
𒁲	-20732
𒈝	-20733
𒊏	-20734
𒊭	-20735
𒋀	-20736
𒋳	-20737
𒌉	-20738
𒌑	-20739
𓈗	-20740
𓏌	-20741
𓏏	-20742
𓏥	-20743
𘬜	-20744
𘯺	-20745
𘰷	-20746
𘰺	-20747
𝅗	-20748
🀠	-20749
🅒	-20750
🆒	-20751
🌋	-20752
🌲	-20753
🌿	-20754
🍖	-20755
🍘	-20756
🍟	-20757
🍠	-20758
🍣	-20759
🍤	-20760
🍺	-20761
🍿	-20762
🏀	-20763
🏡	-20764
🏢	-20765
🏨	-20766
🏭	-20767
🏱	-20768
🏳	-20769
🐑	-20770
🐕	-20771
🐡	-20772
👇	-20773
👛	-20774
👫	-20775
👺	-20776
💈	-20777
💉	-20778
💭	-20779
💸	-20780
📖	-20781
📡	-20782
📹	-20783
🔗	-20784
🔮	-20785
🔵	-20786
🕵	-20787
😒	-20788
😣	-20789
😤	-20790
😨	-20791
😬	-20792
😴	-20793
🙀	-20794
🙄	-20795
🙅	-20796
🚓	-20797
🚕	-20798
🟣	-20799
🤖	-20800
🤞	-20801
🤢	-20802
🤬	-20803
🥁	-20804
🥃	-20805
🥇	-20806
🥔	-20807
🥜	-20808
🥦	-20809
🥨	-20810
🦀	-20811
🦅	-20812
🦈	-20813
🦒	-20814
🦟	-20815
🧀	-20816
🧇	-20817
🧛	-20818
𠃋	-20819
𠃗	-20820
𠄞	-20821
𠙴	-20822
𠥓	-20823
𡋙	-20824
𡤓	-20825
𡮷	-20826
𡿧	-20827
𢇍	-20828
𢢝	-20829
𢦏	-20830
𣌒	-20831
𣪠	-20832
𣫞	-20833
𣴓	-20834
𤇾	-20835
𤔔	-20836
𤣥	-20837
𤳆	-20838
𥁕	-20839
𥜒	-20840
𥫱	-20841
𦘒	-20842
𦳣	-20843
𧞞	-20844
𩁹	-20845
𩙡	-20846
𩫖	-20847
𩫞	-20848
	-20849
	-20850
Ĺ	-20851
Ƃ	-20852
ƙ	-20853
Ʃ	-20854
Ǣ	-20855
ǧ	-20856
Ƕ	-20857
Ȓ	-20858
ȧ	-20859
ɷ	-20860
ɼ	-20861
ʠ	-20862
ʽ	-20863
˟	-20864
ˬ	-20865
˷	-20866
ϋ	-20867
ϡ	-20868
ϩ	-20869
Ѝ	-20870
ѷ	-20871
ҕ	-20872
ҟ	-20873
Ҥ	-20874
Ҩ	-20875
Ҫ	-20876
Ӈ	-20877
ӏ	-20878
ӓ	-20879
Ӝ	-20880
Ӱ	-20881
Ԓ	-20882
՛	-20883
ֿ	-20884
؞	-20885
١	-20886
٦	-20887
ٹ	-20888
ڈ	-20889
ږ	-20890
ڡ	-20891
ڵ	-20892
ۃ	-20893
ۓ	-20894
ۜ	-20895
۪	-20896
ܙ	-20897
ܨ	-20898
ܰ	-20899
ܳ	-20900
ހ	-20901
އ	-20902
ވ	-20903
ޔ	-20904
ޖ	-20905
ަ	-20906
ߊ	-20907
߷	-20908
ࣺ	-20909
ळ	-20910
ऽ	-20911
॰	-20912
ফ	-20913
ৢ	-20914
৷	-20915
ਊ	-20916
ਖ	-20917
ਛ	-20918
ਟ	-20919
ਭ	-20920
਼	-20921
ੜ	-20922
੭	-20923
ઓ	-20924
ઘ	-20925
ઠ	-20926
ૐ	-20927
ૢ	-20928
ମ	-20929
ର	-20930
ஈ	-20931
ௐ	-20932
ఇ	-20933
ఐ	-20934
ఢ	-20935
ಂ	-20936
ಪ	-20937
ಹ	-20938
ೀ	-20939
ೃ	-20940
ೈ	-20941
ങ	-20942
ട	-20943
മ	-20944
ള	-20945
ഴ	-20946
വ	-20947
ശ	-20948
ൊ	-20949
ආ	-20950
ණ	-20951
ධ	-20952
බ	-20953
ෝ	-20954
ฦ	-20955
๘	-20956
ຣ	-20957
ິ	-20958
ຸ	-20959
ຼ	-20960
༺	-20961
༻	-20962
ྨ	-20963
ဇ	-20964
ဦ	-20965
ဲ	-20966
ႃ	-20967
ႆ	-20968
ႇ	-20969
ᄗ	-20970
ᄨ	-20971
ᄳ	-20972
ᄺ	-20973
ᅈ	-20974
ᅉ	-20975
ᅚ	-20976
ᅜ	-20977
ᅷ	-20978
ᅸ	-20979
ᅼ	-20980
ᅽ	-20981
ᅿ	-20982
ᆁ	-20983
ᆇ	-20984
ᆠ	-20985
ᆤ	-20986
ᆥ	-20987
ᇃ	-20988
ᇔ	-20989
ᇕ	-20990
ᇜ	-20991
ᇠ	-20992
ᇬ	-20993
ᇭ	-20994
ᇮ	-20995
ᇶ	-20996
ᇾ	-20997
ሎ	-20998
ሓ	-20999
ሔ	-21000
ሕ	-21001
ሜ	-21002
ሠ	-21003
ሩ	-21004
ሬ	-21005
ሺ	-21006
ቐ	-21007
ቕ	-21008
ቤ	-21009
ቦ	-21010
ቱ	-21011
ቸ	-21012
ች	-21013
ኑ	-21014
ኒ	-21015
ኖ	-21016
ኣ	-21017
ኩ	-21018
ኪ	-21019
ኰ	-21020
ዕ	-21021
ዚ	-21022
ዜ	-21023
ጤ	-21024
ፄ	-21025
ፋ	-21026
ፐ	-21027
።	-21028
፣	-21029
Ꮿ	-21030
ᐁ	-21031
ᐘ	-21032
ᐢ	-21033
ᐤ	-21034
ᑉ	-21035
ᑑ	-21036
ᑿ	-21037
ᒧ	-21038
ᓚ	-21039
ᓲ	-21040
ᓵ	-21041
ᕼ	-21042
ᖁ	-21043
ᗭ	-21044
ᗷ	-21045
ᚑ	-21046
ᚱ	-21047
ᚺ	-21048
ᚽ	-21049
ᛏ	-21050
ᛞ	-21051
ᜀ	-21052
ᜊ	-21053
ᜋ	-21054
ᜎ	-21055
ឌ	-21056
ឡ	-21057
ឮ	-21058
ឿ	-21059
᠂	-21060
᠃	-21061
ᠺ	-21062
ᠼ	-21063
ᨆ	-21064
ᨑ	-21065
ᨔ	-21066
ᮏ	-21067
ᮝ	-21068
ᮤ	-21069
ᴋ	-21070
ᶚ	-21071
ḋ	-21072
ḕ	-21073
Ḱ	-21074
Ṁ	-21075
Ṛ	-21076
ṩ	-21077
Ṻ	-21078
ṽ	-21079
ẁ	-21080
ẃ	-21081
Ẓ	-21082
Ầ	-21083
Ậ	-21084
Ắ	-21085
Ằ	-21086
Ặ	-21087
Ể	-21088
Ễ	-21089
Ỉ	-21090
Ị	-21091
Ỏ	-21092
Ỗ	-21093
Ờ	-21094
Ở	-21095
Ừ	-21096
Ử	-21097
ἂ	-21098
ἣ	-21099
ὃ	-21100
ὓ	-21101
ὥ	-21102
ᾖ	-21103
ᾱ	-21104
ῐ	-21105
ῠ	-21106
‟	-21107
‱	-21108
⁡	-21109
₰	-21110
₲	-21111
₿	-21112
⃘	-21113
⃠	-21114
℘	-21115
⅃	-21116
↩	-21117
↱	-21118
↹	-21119
⇆	-21120
⇦	-21121
∊	-21122
∖	-21123
⊇	-21124
⊖	-21125
⊣	-21126
⋈	-21127
⋠	-21128
⌯	-21129
⎨	-21130
⎫	-21131
⎬	-21132
⎭	-21133
␥	-21134
⓫	-21135
┎	-21136
┑	-21137
┒	-21138
╀	-21139
╥	-21140
╦	-21141
▚	-21142
▛	-21143
▜	-21144
▾	-21145
◍	-21146
◘	-21147
◣	-21148
◤	-21149
◻	-21150
☐	-21151
☑	-21152
☤	-21153
☪	-21154
♁	-21155
♍	-21156
♐	-21157
♱	-21158
⚅	-21159
⚖	-21160
⚛	-21161
⚜	-21162
⚰	-21163
⛄	-21164
⛎	-21165
⛓	-21166
⛤	-21167
⛭	-21168
⛰	-21169
⛵	-21170
✭	-21171
✳	-21172
✴	-21173
❆	-21174
❜	-21175
❮	-21176
❯	-21177
❰	-21178
❱	-21179
➛	-21180
⟂	-21181
⠜	-21182
⠩	-21183
⠪	-21184
⡆	-21185
⡤	-21186
⡯	-21187
⡶	-21188
⢛	-21189
⢰	-21190
⣎	-21191
⣯	-21192
⣽	-21193
⤶	-21194
⤷	-21195
⥽	-21196
⦅	-21197
⧫	-21198
⧵	-21199
⨂	-21200
⫶	-21201
⮍	-21202
Ɱ	-21203
ⲛ	-21204
Ⲥ	-21205
ⵃ	-21206
⸱	-21207
⺈	-21208
⺿	-21209
⻏	-21210
⻖	-21211
⻗	-21212
⻞	-21213
⿸	-21214
⿹	-21215
〳	-21216
ㄯ	-21217
ㆷ	-21218
㇄	-21219
㇏	-21220
㇐	-21221
ㇲ	-21222
ㇴ	-21223
㐌	-21224
㐟	-21225
㐢	-21226
㑬	-21227
㑹	-21228
㓁	-21229
㓙	-21230
㔔	-21231
㔨	-21232
㕥	-21233
㕧	-21234
㖌	-21235
㖱	-21236
㗂	-21237
㗸	-21238
㚆	-21239
㝅	-21240
㝏	-21241
㝯	-21242
㝱	-21243
㞢	-21244
㞷	-21245
㠔	-21246
㣎	-21247
㣮	-21248
㣺	-21249
㤚	-21250
㥥	-21251
㥽	-21252
㦡	-21253
㪔	-21254
㫈	-21255
㫻	-21256
㬉	-21257
㭆	-21258
㭨	-21259
㮔	-21260
㯑	-21261
㴽	-21262
㵉	-21263
㵘	-21264
㵛	-21265
㵮	-21266
㶀	-21267
㶃	-21268
㷁	-21269
㸃	-21270
㹜	-21271
㹠	-21272
㹰	-21273
㺀	-21274
㺎	-21275
㻐	-21276
㻶	-21277
㻻	-21278
㽉	-21279
㽪	-21280
㿉	-21281
䂫	-21282
䄂	-21283
䆫	-21284
䇂	-21285
䇞	-21286
䇹	-21287
䇿	-21288
䎶	-21289
䑎	-21290
䓉	-21291
䔍	-21292
䔲	-21293
䔽	-21294
䕃	-21295
䛟	-21296
䞭	-21297
䢂	-21298
䢉	-21299
䢘	-21300
䥃	-21301
䨺	-21302
䭆	-21303
䭏	-21304
䭾	-21305
䮫	-21306
䯬	-21307
䰕	-21308
䰜	-21309
䵣	-21310
乄	-21311
乕	-21312
乩	-21313
亓	-21314
仒	-21315
仫	-21316
仵	-21317
伜	-21318
伲	-21319
伾	-21320
佘	-21321
佢	-21322
佤	-21323
佲	-21324
佸	-21325
侇	-21326
侔	-21327
侚	-21328
侬	-21329
俒	-21330
俙	-21331
俜	-21332
俢	-21333
俪	-21334
俭	-21335
倈	-21336
倕	-21337
偓	-21338
傴	-21339
僐	-21340
僨	-21341
僼	-21342
儗	-21343
冋	-21344
冓	-21345
冘	-21346
冡	-21347
凈	-21348
凖	-21349
凾	-21350
刋	-21351
刦	-21352
刧	-21353
剚	-21354
剳	-21355
剴	-21356
剸	-21357
劂	-21358
劌	-21359
劘	-21360
勍	-21361
勠	-21362
匄	-21363
匋	-21364
匔	-21365
匮	-21366
卆	-21367
卮	-21368
厁	-21369
厢	-21370
厺	-21371
厽	-21372
叚	-21373
叵	-21374
叽	-21375
吱	-21376
呕	-21377
呗	-21378
呫	-21379
呬	-21380
呰	-21381
呷	-21382
咈	-21383
咔	-21384
咠	-21385
咻	-21386
哛	-21387
哤	-21388
哳	-21389
唥	-21390
唹	-21391
唻	-21392
啀	-21393
啝	-21394
啫	-21395
啰	-21396
啱	-21397
喑	-21398
喣	-21399
喤	-21400
喲	-21401
喽	-21402
嗀	-21403
嗉	-21404
嗒	-21405
嗷	-21406
嗹	-21407
嗿	-21408
嘑	-21409
嘨	-21410
嘰	-21411
嘸	-21412
噔	-21413
噭	-21414
噳	-21415
噸	-21416
嚈	-21417
嚞	-21418
嚨	-21419
嚩	-21420
嚻	-21421
囎	-21422
囏	-21423
囖	-21424
囝	-21425
囤	-21426
囱	-21427
圅	-21428
圇	-21429
圡	-21430
圮	-21431
圯	-21432
圷	-21433
圼	-21434
坳	-21435
坽	-21436
垚	-21437
垤	-21438
垰	-21439
垶	-21440
垻	-21441
埻	-21442
埽	-21443
堋	-21444
堦	-21445
塉	-21446
墁	-21447
墬	-21448
墭	-21449
墸	-21450
墿	-21451
壄	-21452
壈	-21453
壒	-21454
壔	-21455
壥	-21456
壨	-21457
壾	-21458
夓	-21459
夤	-21460
夳	-21461
夻	-21462
奓	-21463
奡	-21464
奻	-21465
妘	-21466
妛	-21467
妟	-21468
妪	-21469
妯	-21470
姁	-21471
姃	-21472
姈	-21473
娍	-21474
娳	-21475
娵	-21476
婊	-21477
媓	-21478
媞	-21479
媢	-21480
媳	-21481
嫚	-21482
嫠	-21483
嫫	-21484
嫮	-21485
嫵	-21486
嬊	-21487
嬭	-21488
嬸	-21489
嬾	-21490
孆	-21491
孒	-21492
孓	-21493
宂	-21494
尃	-21495
尅	-21496
尜	-21497
尣	-21498
尬	-21499
屧	-21500
岊	-21501
岺	-21502
岼	-21503
峇	-21504
峌	-21505
峑	-21506
峥	-21507
峿	-21508
嵔	-21509
嵹	-21510
嶓	-21511
嶻	-21512
巃	-21513
巠	-21514
帍	-21515
帒	-21516
帢	-21517
幙	-21518
幵	-21519
庀	-21520
庲	-21521
廋	-21522
廱	-21523
弴	-21524
彄	-21525
徉	-21526
徜	-21527
忩	-21528
忯	-21529
忸	-21530
怆	-21531
怳	-21532
恝	-21533
恞	-21534
恟	-21535
恺	-21536
悃	-21537
悏	-21538
悺	-21539
惆	-21540
惋	-21541
惏	-21542
惛	-21543
惮	-21544
惴	-21545
愇	-21546
愐	-21547
愜	-21548
愫	-21549
愬	-21550
愽	-21551
慑	-21552
慓	-21553
慱	-21554
慽	-21555
憓	-21556
憖	-21557
憘	-21558
憸	-21559
憼	-21560
懜	-21561
懵	-21562
懾	-21563
戞	-21564
扒	-21565
扛	-21566
扤	-21567
抔	-21568
抯	-21569
拢	-21570
拣	-21571
拽	-21572
挖	-21573
挠	-21574
捃	-21575
捅	-21576
捫	-21577
掄	-21578
掏	-21579
揔	-21580
揜	-21581
揠	-21582
搎	-21583
搓	-21584
搥	-21585
搽	-21586
摎	-21587
摶	-21588
撦	-21589
撽	-21590
擉	-21591
擗	-21592
擯	-21593
擳	-21594
擻	-21595
攎	-21596
攞	-21597
敉	-21598
敭	-21599
敺	-21600
斮	-21601
旎	-21602
旐	-21603
昐	-21604
昡	-21605
昤	-21606
昫	-21607
昷	-21608
晈	-21609
晪	-21610
暃	-21611
暋	-21612
暱	-21613
暵	-21614
暶	-21615
曈	-21616
曛	-21617
曢	-21618
曣	-21619
朅	-21620
朆	-21621
朓	-21622
朣	-21623
杇	-21624
杮	-21625
杴	-21626
枊	-21627
枱	-21628
柁	-21629
柙	-21630
柷	-21631
栁	-21632
栂	-21633
栅	-21634
栝	-21635
桉	-21636
桨	-21637
桩	-21638
桭	-21639
桱	-21640
桷	-21641
梣	-21642
棐	-21643
棖	-21644
棫	-21645
棰	-21646
棼	-21647
椁	-21648
椇	-21649
椏	-21650
椢	-21651
椨	-21652
椹	-21653
楎	-21654
楺	-21655
榑	-21656
榟	-21657
榼	-21658
槀	-21659
槏	-21660
槟	-21661
樔	-21662
樨	-21663
樲	-21664
橓	-21665
橜	-21666
橢	-21667
橱	-21668
橵	-21669
檇	-21670
檑	-21671
檛	-21672
檝	-21673
檥	-21674
檿	-21675
櫁	-21676
櫥	-21677
櫪	-21678
櫬	-21679
欟	-21680
歘	-21681
歚	-21682
殕	-21683
毤	-21684
氨	-21685
汛	-21686
沴	-21687
泆	-21688
泙	-21689
泝	-21690
泷	-21691
泾	-21692
洐	-21693
洢	-21694
洤	-21695
洨	-21696
洬	-21697
洳	-21698
洿	-21699
浏	-21700
浰	-21701
浵	-21702
涀	-21703
涏	-21704
涒	-21705
涔	-21706
涞	-21707
涣	-21708
涤	-21709
涮	-21710
涴	-21711
淎	-21712
淰	-21713
淶	-21714
渌	-21715
渰	-21716
湑	-21717
湓	-21718
湥	-21719
湩	-21720
湴	-21721
湶	-21722
溏	-21723
溚	-21724
溴	-21725
滈	-21726
滖	-21727
滘	-21728
滥	-21729
漊	-21730
漴	-21731
潋	-21732
潍	-21733
潕	-21734
潝	-21735
潲	-21736
潴	-21737
潸	-21738
澒	-21739
澟	-21740
澨	-21741
澼	-21742
濼	-21743
瀊	-21744
瀎	-21745
瀗	-21746
瀴	-21747
灆	-21748
灐	-21749
灦	-21750
灩	-21751
灷	-21752
炆	-21753
烇	-21754
烎	-21755
烩	-21756
焂	-21757
焇	-21758
焊	-21759
焖	-21760
焠	-21761
焭	-21762
煃	-21763
煓	-21764
煗	-21765
熕	-21766
熽	-21767
爓	-21768
爯	-21769
牜	-21770
犰	-21771
狃	-21772
狆	-21773
狍	-21774
狖	-21775
狳	-21776
狺	-21777
狾	-21778
猂	-21779
猇	-21780
猌	-21781
猠	-21782
猳	-21783
猻	-21784
獌	-21785
獍	-21786
獙	-21787
獢	-21788
獦	-21789
獮	-21790
獷	-21791
玃	-21792
玑	-21793
玼	-21794
珒	-21795
珘	-21796
珱	-21797
琁	-21798
琄	-21799
琈	-21800
琱	-21801
琹	-21802
瑃	-21803
瑅	-21804
瑡	-21805
璔	-21806
璛	-21807
璪	-21808
瓍	-21809
瓐	-21810
瓩	-21811
瓻	-21812
甂	-21813
甝	-21814
甡	-21815
甪	-21816
甶	-21817
甾	-21818
畬	-21819
畲	-21820
畺	-21821
疔	-21822
痌	-21823
痓	-21824
瘃	-21825
瘖	-21826
瘣	-21827
瘪	-21828
瘳	-21829
瘸	-21830
癈	-21831
癫	-21832
癵	-21833
皈	-21834
皤	-21835
盁	-21836
睐	-21837
睘	-21838
睠	-21839
瞕	-21840
瞟	-21841
瞠	-21842
瞫	-21843
矚	-21844
矞	-21845
矟	-21846
矫	-21847
矰	-21848
矼	-21849
砀	-21850
砵	-21851
硎	-21852
硐	-21853
碆	-21854
碉	-21855
碖	-21856
磺	-21857
磿	-21858
礚	-21859
礱	-21860
祏	-21861
祛	-21862
祤	-21863
祳	-21864
禂	-21865
禚	-21866
禟	-21867
禠	-21868
禬	-21869
禵	-21870
禼	-21871
秌	-21872
秏	-21873
秸	-21874
稁	-21875
稈	-21876
稑	-21877
稞	-21878
稭	-21879
稺	-21880
穄	-21881
穅	-21882
穐	-21883
穧	-21884
穨	-21885
穸	-21886
窀	-21887
窆	-21888
窣	-21889
窨	-21890
窫	-21891
窳	-21892
窴	-21893
窻	-21894
竖	-21895
笶	-21896
筇	-21897
筚	-21898
筛	-21899
筢	-21900
箊	-21901
箐	-21902
箖	-21903
箝	-21904
箟	-21905
篈	-21906
篘	-21907
篙	-21908
簏	-21909
簓	-21910
籀	-21911
籒	-21912
粁	-21913
粃	-21914
粼	-21915
糒	-21916
糙	-21917
糝	-21918
紿	-21919
綍	-21920
綣	-21921
緈	-21922
緉	-21923
縇	-21924
縳	-21925
縵	-21926
繦	-21927
纑	-21928
纣	-21929
纫	-21930
纬	-21931
绎	-21932
绮	-21933
缈	-21934
缐	-21935
罓	-21936
罙	-21937
罝	-21938
罟	-21939
罢	-21940
罣	-21941
罨	-21942
羗	-21943
羭	-21944
羴	-21945
羶	-21946
翙	-21947
肎	-21948
肭	-21949
胙	-21950
脡	-21951
脥	-21952
脮	-21953
脷	-21954
腌	-21955
腭	-21956
膃	-21957
膕	-21958
臛	-21959
臞	-21960
臿	-21961
舋	-21962
舝	-21963
芉	-21964
芡	-21965
芰	-21966
苇	-21967
苿	-21968
茌	-21969
茍	-21970
茞	-21971
茺	-21972
荥	-21973
莠	-21974
莿	-21975
菐	-21976
菶	-21977
萪	-21978
葒	-21979
葚	-21980
蒧	-21981
蓦	-21982
蓨	-21983
蓰	-21984
蔀	-21985
蔻	-21986
蕞	-21987
蕺	-21988
薀	-21989
薍	-21990
薖	-21991
薝	-21992
薸	-21993
蘉	-21994
蘓	-21995
蘘	-21996
蘢	-21997
虌	-21998
虏	-21999
虒	-22000
虘	-22001
虼	-22002
虿	-22003
蚇	-22004
蚋	-22005
蚖	-22006
蚛	-22007
蚰	-22008
蛄	-22009
蛊	-22010
蛰	-22011
蝜	-22012
蝡	-22013
螄	-22014
螋	-22015
螬	-22016
蟅	-22017
蟈	-22018
蟢	-22019
蟶	-22020
蟺	-22021
蟼	-22022
蠐	-22023
蠷	-22024
衇	-22025
衦	-22026
裩	-22027
裬	-22028
褋	-22029
褔	-22030
褕	-22031
褞	-22032
褯	-22033
襫	-22034
覌	-22035
覘	-22036
覦	-22037
觮	-22038
訏	-22039
訒	-22040
訩	-22041
詆	-22042
詎	-22043
詑	-22044
詗	-22045
詝	-22046
誆	-22047
誳	-22048
諪	-22049
諵	-22050
謓	-22051
譟	-22052
譱	-22053
譶	-22054
譸	-22055
讞	-22056
诃	-22057
诏	-22058
谌	-22059
谥	-22060
谩	-22061
豓	-22062
豲	-22063
豼	-22064
貇	-22065
貎	-22066
貏	-22067
貙	-22068
貲	-22069
賏	-22070
賧	-22071
賬	-22072
贮	-22073
赘	-22074
赚	-22075
赬	-22076
赺	-22077
趄	-22078
趒	-22079
趔	-22080
趛	-22081
跍	-22082
跎	-22083
跜	-22084
跢	-22085
跧	-22086
跫	-22087
跽	-22088
踔	-22089
踚	-22090
踝	-22091
踹	-22092
踽	-22093
蹯	-22094
蹳	-22095
躐	-22096
躞	-22097
躨	-22098
躭	-22099
輈	-22100
輧	-22101
輶	-22102
轓	-22103
轣	-22104
辐	-22105
辗	-22106
辷	-22107
违	-22108
迵	-22109
逄	-22110
逛	-22111
逰	-22112
遉	-22113
遟	-22114
遢	-22115
遫	-22116
邆	-22117
邋	-22118
邍	-22119
邘	-22120
邝	-22121
邡	-22122
邬	-22123
郏	-22124
郔	-22125
郲	-22126
郳	-22127
郾	-22128
鄠	-22129
鄶	-22130
鄹	-22131
酤	-22132
酶	-22133
醎	-22134
醑	-22135
釟	-22136
釤	-22137
釰	-22138
鈁	-22139
鈉	-22140
鈊	-22141
鈌	-22142
鈒	-22143
鈦	-22144
鉍	-22145
鉐	-22146
鉼	-22147
銈	-22148
銋	-22149
銲	-22150
銿	-22151
鋁	-22152
鋅	-22153
鋕	-22154
鋗	-22155
鋟	-22156
錀	-22157
錏	-22158
錟	-22159
錧	-22160
鍂	-22161
鍆	-22162
鍉	-22163
鍜	-22164
鍳	-22165
鎂	-22166
鎋	-22167
鎡	-22168
鎢	-22169
鎩	-22170
鎺	-22171
鏊	-22172
鏵	-22173
鏶	-22174
鏷	-22175
鐗	-22176
鐧	-22177
鐮	-22178
鑷	-22179
钩	-22180
钯	-22181
钵	-22182
铉	-22183
铐	-22184
铽	-22185
锇	-22186
锌	-22187
镌	-22188
镍	-22189
镣	-22190
镤	-22191
镭	-22192
閈	-22193
閗	-22194
閪	-22195
闃	-22196
闋	-22197
闚	-22198
闷	-22199
阆	-22200
阏	-22201
阔	-22202
阸	-22203
阹	-22204
陧	-22205
陲	-22206
隞	-22207
隥	-22208
隩	-22209
雘	-22210
雧	-22211
霂	-22212
霈	-22213
霤	-22214
靐	-22215
靬	-22216
鞑	-22217
鞵	-22218
韂	-22219
韝	-22220
頠	-22221
顇	-22222
顋	-22223
顦	-22224
顴	-22225
颇	-22226
颴	-22227
颸	-22228
飁	-22229
飈	-22230
飥	-22231
飱	-22232
餑	-22233
餬	-22234
餳	-22235
餵	-22236
餽	-22237
餾	-22238
饀	-22239
饃	-22240
饙	-22241
饟	-22242
饲	-22243
馪	-22244
駊	-22245
駍	-22246
駏	-22247
駖	-22248
駛	-22249
駬	-22250
駲	-22251
駷	-22252
駹	-22253
騀	-22254
騩	-22255
騸	-22256
驌	-22257
驦	-22258
驼	-22259
骋	-22260
骜	-22261
骝	-22262
骢	-22263
髆	-22264
髞	-22265
髠	-22266
髬	-22267
髵	-22268
鬂	-22269
鬍	-22270
鬓	-22271
鬛	-22272
鬳	-22273
鬽	-22274
鮦	-22275
鮸	-22276
鯆	-22277
鯈	-22278
鯮	-22279
鰊	-22280
鰷	-22281
鰾	-22282
鱧	-22283
鲛	-22284
鲠	-22285
鲥	-22286
鳜	-22287
鳞	-22288
鴡	-22289
鵓	-22290
鵩	-22291
鵪	-22292
鶖	-22293
鶲	-22294
鸂	-22295
鸋	-22296
鸘	-22297
鸥	-22298
鸮	-22299
鹂	-22300
鹊	-22301
麄	-22302
麅	-22303
麇	-22304
麉	-22305
麊	-22306
麫	-22307
黓	-22308
黟	-22309
鼔	-22310
鼖	-22311
鼴	-22312
鼹	-22313
鼾	-22314
齈	-22315
齗	-22316
龗	-22317
龥	-22318
龱	-22319
龻	-22320
鿄	-22321
ꉺ	-22322
꒡	-22323
꒪	-22324
꒰	-22325
꒱	-22326
ꓥ	-22327
Ꙟ	-22328
Ꙩ	-22329
ꙩ	-22330
Ꙭ	-22331
꜄	-22332
Ꜿ	-22333
ꞎ	-22334
Ɡ	-22335
Ʝ	-22336
Ꟊ	-22337
ꠓ	-22338
ꡙ	-22339
ꥠ	-22340
ꥧ	-22341
ꥨ	-22342
ꥩ	-22343
ꥬ	-22344
ꥮ	-22345
ꥯ	-22346
ꥷ	-22347
ꥹ	-22348
ꥺ	-22349
ꦆ	-22350
ꦑ	-22351
ꦝ	-22352
ꦟ	-22353
ꦯ	-22354
ꦾ	-22355
ꩩ	-22356
갎	-22357
갟	-22358
갡	-22359
갢	-22360
갧	-22361
갩	-22362
갪	-22363
갫	-22364
갳	-22365
갶	-22366
갺	-22367
갻	-22368
갽	-22369
갾	-22370
갿	-22371
걃	-22372
걅	-22373
걆	-22374
걇	-22375
걊	-22376
걎	-22377
걒	-22378
걖	-22379
걗	-22380
걙	-22381
걚	-22382
걛	-22383
걝	-22384
걞	-22385
걟	-22386
걢	-22387
걣	-22388
걤	-22389
걦	-22390
걧	-22391
걨	-22392
걪	-22393
걫	-22394
걬	-22395
걭	-22396
걮	-22397
걯	-22398
걵	-22399
걶	-22400
걻	-22401
겏	-22402
겑	-22403
겖	-22404
겘	-22405
겙	-22406
겚	-22407
겛	-22408
겮	-22409
겱	-22410
겲	-22411
겵	-22412
겶	-22413
겷	-22414
겺	-22415
겾	-22416
곆	-22417
곇	-22418
곉	-22419
곊	-22420
곋	-22421
곍	-22422
곎	-22423
곏	-22424
곐	-22425
곑	-22426
곒	-22427
곓	-22428
곔	-22429
곚	-22430
곛	-22431
곜	-22432
곝	-22433
곞	-22434
곟	-22435
곣	-22436
곥	-22437
곦	-22438
곭	-22439
곾	-22440
곿	-22441
괁	-22442
괂	-22443
괇	-22444
괈	-22445
괉	-22446
괊	-22447
괋	-22448
괎	-22449
괒	-22450
괓	-22451
괔	-22452
괖	-22453
괚	-22454
괛	-22455
괝	-22456
괟	-22457
괡	-22458
괣	-22459
괤	-22460
괥	-22461
괦	-22462
괨	-22463
괩	-22464
괪	-22465
괮	-22466
괰	-22467
괲	-22468
괳	-22469
괶	-22470
괷	-22471
괹	-22472
괻	-22473
괽	-22474
괾	-22475
괿	-22476
굀	-22477
굁	-22478
굂	-22479
굃	-22480
굅	-22481
굆	-22482
굊	-22483
굋	-22484
굌	-22485
굍	-22486
굎	-22487
굏	-22488
굒	-22489
굓	-22490
굕	-22491
굖	-22492
굙	-22493
굚	-22494
굜	-22495
굝	-22496
굞	-22497
굢	-22498
굤	-22499
굧	-22500
굩	-22501
굪	-22502
굫	-22503
굲	-22504
굹	-22505
굺	-22506
굾	-22507
궀	-22508
궊	-22509
궍	-22510
궎	-22511
궏	-22512
궑	-22513
궓	-22514
궕	-22515
궗	-22516
궟	-22517
궠	-22518
궡	-22519
궣	-22520
궦	-22521
궧	-22522
궩	-22523
궪	-22524
궱	-22525
궲	-22526
궴	-22527
궵	-22528
궽	-22529
궾	-22530
궿	-22531
귂	-22532
귃	-22533
귅	-22534
귆	-22535
귇	-22536
귉	-22537
귊	-22538
귋	-22539
귌	-22540
귎	-22541
귒	-22542
귔	-22543
귘	-22544
귚	-22545
귞	-22546
귟	-22547
귢	-22548
귣	-22549
귥	-22550
귦	-22551
귩	-22552
귫	-22553
귮	-22554
귰	-22555
귲	-22556
귳	-22557
귴	-22558
귶	-22559
귽	-22560
긅	-22561
긆	-22562
긊	-22563
긖	-22564
긗	-22565
긙	-22566
긚	-22567
긞	-22568
긟	-22569
긠	-22570
긥	-22571
긦	-22572
긨	-22573
긪	-22574
긫	-22575
긭	-22576
긯	-22577
긳	-22578
긵	-22579
긾	-22580
깗	-22581
깘	-22582
깙	-22583
깚	-22584
깫	-22585
깭	-22586
깮	-22587
깱	-22588
깲	-22589
깴	-22590
깵	-22591
깶	-22592
깷	-22593
깾	-22594
깿	-22595
꺁	-22596
꺂	-22597
꺇	-22598
꺉	-22599
꺊	-22600
꺋	-22601
꺎	-22602
꺒	-22603
꺖	-22604
꺚	-22605
꺛	-22606
꺜	-22607
꺝	-22608
꺞	-22609
꺟	-22610
꺡	-22611
꺣	-22612
꺥	-22613
꺦	-22614
꺧	-22615
꺩	-22616
꺪	-22617
꺫	-22618
꺬	-22619
꺭	-22620
꺮	-22621
꺯	-22622
꺰	-22623
꺱	-22624
꺲	-22625
꺳	-22626
꺶	-22627
꺷	-22628
꺸	-22629
꺹	-22630
꺺	-22631
꺻	-22632
꺿	-22633
껁	-22634
껂	-22635
껅	-22636
껆	-22637
껈	-22638
껉	-22639
껊	-22640
껋	-22641
껎	-22642
껓	-22643
껕	-22644
껛	-22645
껝	-22646
껞	-22647
껡	-22648
껢	-22649
껣	-22650
껤	-22651
껥	-22652
껧	-22653
껪	-22654
껮	-22655
껯	-22656
껱	-22657
껲	-22658
껳	-22659
껷	-22660
껹	-22661
껺	-22662
껻	-22663
껽	-22664
껾	-22665
껿	-22666
꼀	-22667
꼁	-22668
꼂	-22669
꼃	-22670
꼊	-22671
꼋	-22672
꼌	-22673
꼎	-22674
꼏	-22675
꼓	-22676
꼕	-22677
꼖	-22678
꼗	-22679
꼘	-22680
꼙	-22681
꼚	-22682
꼛	-22683
꼜	-22684
꼝	-22685
꼞	-22686
꼟	-22687
꼠	-22688
꼡	-22689
꼢	-22690
꼤	-22691
꼥	-22692
꼦	-22693
꼧	-22694
꼨	-22695
꼩	-22696
꼪	-22697
꼫	-22698
꼵	-22699
꼷	-22700
꼸	-22701
꼹	-22702
꼺	-22703
꼾	-22704
꽀	-22705
꽋	-22706
꽍	-22707
꽎	-22708
꽏	-22709
꽒	-22710
꽓	-22711
꽔	-22712
꽕	-22713
꽖	-22714
꽗	-22715
꽘	-22716
꽞	-22717
꽟	-22718
꽡	-22719
꽢	-22720
꽧	-22721
꽩	-22722
꽪	-22723
꽫	-22724
꽭	-22725
꽮	-22726
꽰	-22727
꽱	-22728
꽲	-22729
꽳	-22730
꽴	-22731
꽵	-22732
꽶	-22733
꽷	-22734
꽺	-22735
꽻	-22736
꽼	-22737
꽽	-22738
꽾	-22739
꽿	-22740
꾂	-22741
꾃	-22742
꾅	-22743
꾆	-22744
꾇	-22745
꾉	-22746
꾊	-22747
꾋	-22748
꾌	-22749
꾍	-22750
꾎	-22751
꾏	-22752
꾒	-22753
꾓	-22754
꾕	-22755
꾖	-22756
꾗	-22757
꾘	-22758
꾙	-22759
꾚	-22760
꾛	-22761
꾝	-22762
꾞	-22763
꾟	-22764
꾡	-22765
꾢	-22766
꾣	-22767
꾤	-22768
꾦	-22769
꾧	-22770
꾨	-22771
꾩	-22772
꾪	-22773
꾮	-22774
꾯	-22775
꾰	-22776
꾲	-22777
꾴	-22778
꾵	-22779
꾶	-22780
꾷	-22781
꾻	-22782
꾽	-22783
꿁	-22784
꿄	-22785
꿅	-22786
꿊	-22787
꿌	-22788
꿖	-22789
꿗	-22790
꿙	-22791
꿚	-22792
꿛	-22793
꿞	-22794
꿟	-22795
꿠	-22796
꿡	-22797
꿢	-22798
꿣	-22799
꿤	-22800
꿦	-22801
꿪	-22802
꿫	-22803
꿬	-22804
꿭	-22805
꿮	-22806
꿲	-22807
꿳	-22808
꿵	-22809
꿶	-22810
꿷	-22811
꿺	-22812
꿼	-22813
꿽	-22814
꿾	-22815
뀆	-22816
뀇	-22817
뀈	-22818
뀉	-22819
뀊	-22820
뀋	-22821
뀎	-22822
뀏	-22823
뀑	-22824
뀒	-22825
뀕	-22826
뀖	-22827
뀗	-22828
뀘	-22829
뀙	-22830
뀚	-22831
뀞	-22832
뀣	-22833
뀤	-22834
뀥	-22835
뀦	-22836
뀧	-22837
뀫	-22838
뀭	-22839
뀮	-22840
뀯	-22841
뀲	-22842
뀳	-22843
뀴	-22844
뀶	-22845
뀷	-22846
뀺	-22847
뀼	-22848
뀿	-22849
끀	-22850
끁	-22851
끂	-22852
끃	-22853
끇	-22854
끐	-22855
끒	-22856
끖	-22857
끚	-22858
끞	-22859
끢	-22860
끣	-22861
끥	-22862
끦	-22863
끧	-22864
끩	-22865
끪	-22866
끫	-22867
끬	-22868
끭	-22869
끮	-22870
끯	-22871
끱	-22872
끲	-22873
끳	-22874
끴	-22875
끶	-22876
끷	-22877
끸	-22878
끹	-22879
끺	-22880
끻	-22881
끿	-22882
낁	-22883
낂	-22884
낃	-22885
낅	-22886
낆	-22887
낇	-22888
낈	-22889
낉	-22890
낊	-22891
낎	-22892
낒	-22893
낓	-22894
낖	-22895
낝	-22896
낥	-22897
낦	-22898
낷	-22899
낹	-22900
낺	-22901
낾	-22902
냁	-22903
냂	-22904
냆	-22905
냋	-22906
냎	-22907
냒	-22908
냓	-22909
냕	-22910
냖	-22911
냗	-22912
냚	-22913
냜	-22914
냝	-22915
냞	-22916
냢	-22917
냦	-22918
냧	-22919
냩	-22920
냪	-22921
냭	-22922
냮	-22923
냯	-22924
냱	-22925
냲	-22926
냳	-22927
냴	-22928
냵	-22929
냶	-22930
냷	-22931
냸	-22932
냹	-22933
냺	-22934
냻	-22935
냽	-22936
냾	-22937
냿	-22938
넂	-22939
넃	-22940
넄	-22941
넅	-22942
넆	-22943
넇	-22944
넕	-22945
넦	-22946
넩	-22947
넪	-22948
넭	-22949
넮	-22950
넯	-22951
넰	-22952
넱	-22953
넲	-22954
넳	-22955
넻	-22956
녆	-22957
녉	-22958
녊	-22959
녋	-22960
녌	-22961
녍	-22962
녎	-22963
녏	-22964
녒	-22965
녖	-22966
녗	-22967
녚	-22968
녞	-22969
녟	-22970
녡	-22971
녢	-22972
녣	-22973
녥	-22974
녦	-22975
녧	-22976
녨	-22977
녩	-22978
녪	-22979
녫	-22980
녭	-22981
녮	-22982
녰	-22983
녱	-22984
녲	-22985
녳	-22986
녴	-22987
녵	-22988
녶	-22989
녷	-22990
녻	-22991
녽	-22992
녾	-22993
놄	-22994
놖	-22995
놗	-22996
놙	-22997
놚	-22998
놟	-22999
놠	-23000
놡	-23001
놢	-23002
놣	-23003
놦	-23004
놪	-23005
놫	-23006
놭	-23007
놮	-23008
놱	-23009
놲	-23010
놳	-23011
놴	-23012
놵	-23013
놷	-23014
놸	-23015
놹	-23016
놺	-23017
놻	-23018
놼	-23019
놽	-23020
놾	-23021
놿	-23022
뇀	-23023
뇁	-23024
뇂	-23025
뇃	-23026
뇅	-23027
뇆	-23028
뇇	-23029
뇈	-23030
뇉	-23031
뇊	-23032
뇋	-23033
뇍	-23034
뇎	-23035
뇏	-23036
뇑	-23037
뇒	-23038
뇓	-23039
[...]
